node {
  name: "global_step/Initializer/zeros/shape_as_tensor"
  op: "Const"
  attr {
    key: "_class"
    value {
      list {
        s: "loc:@global_step"
      }
    }
  }
  attr {
    key: "_output_shapes"
    value {
      list {
        shape {
          dim {
          }
        }
      }
    }
  }
  attr {
    key: "dtype"
    value {
      type: DT_INT32
    }
  }
  attr {
    key: "value"
    value {
      tensor {
        dtype: DT_INT32
        tensor_shape {
          dim {
          }
        }
      }
    }
  }
}
node {
  name: "global_step/Initializer/zeros/Const"
  op: "Const"
  attr {
    key: "_class"
    value {
      list {
        s: "loc:@global_step"
      }
    }
  }
  attr {
    key: "_output_shapes"
    value {
      list {
        shape {
        }
      }
    }
  }
  attr {
    key: "dtype"
    value {
      type: DT_INT64
    }
  }
  attr {
    key: "value"
    value {
      tensor {
        dtype: DT_INT64
        tensor_shape {
        }
        int64_val: 0
      }
    }
  }
}
node {
  name: "global_step/Initializer/zeros"
  op: "Fill"
  input: "global_step/Initializer/zeros/shape_as_tensor"
  input: "global_step/Initializer/zeros/Const"
  attr {
    key: "T"
    value {
      type: DT_INT64
    }
  }
  attr {
    key: "_class"
    value {
      list {
        s: "loc:@global_step"
      }
    }
  }
  attr {
    key: "_output_shapes"
    value {
      list {
        shape {
        }
      }
    }
  }
  attr {
    key: "index_type"
    value {
      type: DT_INT32
    }
  }
}
node {
  name: "global_step"
  op: "VariableV2"
  attr {
    key: "_class"
    value {
      list {
        s: "loc:@global_step"
      }
    }
  }
  attr {
    key: "_output_shapes"
    value {
      list {
        shape {
        }
      }
    }
  }
  attr {
    key: "container"
    value {
      s: ""
    }
  }
  attr {
    key: "dtype"
    value {
      type: DT_INT64
    }
  }
  attr {
    key: "shape"
    value {
      shape {
      }
    }
  }
  attr {
    key: "shared_name"
    value {
      s: ""
    }
  }
}
node {
  name: "global_step/Assign"
  op: "Assign"
  input: "global_step"
  input: "global_step/Initializer/zeros"
  attr {
    key: "T"
    value {
      type: DT_INT64
    }
  }
  attr {
    key: "_class"
    value {
      list {
        s: "loc:@global_step"
      }
    }
  }
  attr {
    key: "_output_shapes"
    value {
      list {
        shape {
        }
      }
    }
  }
  attr {
    key: "use_locking"
    value {
      b: true
    }
  }
  attr {
    key: "validate_shape"
    value {
      b: true
    }
  }
}
node {
  name: "global_step/read"
  op: "Identity"
  input: "global_step"
  attr {
    key: "T"
    value {
      type: DT_INT64
    }
  }
  attr {
    key: "_class"
    value {
      list {
        s: "loc:@global_step"
      }
    }
  }
  attr {
    key: "_output_shapes"
    value {
      list {
        shape {
        }
      }
    }
  }
}
node {
  name: "global_step/IsVariableInitialized"
  op: "IsVariableInitialized"
  input: "global_step"
  attr {
    key: "_class"
    value {
      list {
        s: "loc:@global_step"
      }
    }
  }
  attr {
    key: "_output_shapes"
    value {
      list {
        shape {
        }
      }
    }
  }
  attr {
    key: "dtype"
    value {
      type: DT_INT64
    }
  }
}
node {
  name: "global_step/cond/Switch"
  op: "Switch"
  input: "global_step/IsVariableInitialized"
  input: "global_step/IsVariableInitialized"
  attr {
    key: "T"
    value {
      type: DT_BOOL
    }
  }
  attr {
    key: "_output_shapes"
    value {
      list {
        shape {
        }
        shape {
        }
      }
    }
  }
}
node {
  name: "global_step/cond/switch_t"
  op: "Identity"
  input: "global_step/cond/Switch:1"
  attr {
    key: "T"
    value {
      type: DT_BOOL
    }
  }
  attr {
    key: "_output_shapes"
    value {
      list {
        shape {
        }
      }
    }
  }
}
node {
  name: "global_step/cond/switch_f"
  op: "Identity"
  input: "global_step/cond/Switch"
  attr {
    key: "T"
    value {
      type: DT_BOOL
    }
  }
  attr {
    key: "_output_shapes"
    value {
      list {
        shape {
        }
      }
    }
  }
}
node {
  name: "global_step/cond/pred_id"
  op: "Identity"
  input: "global_step/IsVariableInitialized"
  attr {
    key: "T"
    value {
      type: DT_BOOL
    }
  }
  attr {
    key: "_output_shapes"
    value {
      list {
        shape {
        }
      }
    }
  }
}
node {
  name: "global_step/cond/read"
  op: "Identity"
  input: "global_step/cond/read/Switch:1"
  attr {
    key: "T"
    value {
      type: DT_INT64
    }
  }
  attr {
    key: "_output_shapes"
    value {
      list {
        shape {
        }
      }
    }
  }
}
node {
  name: "global_step/cond/read/Switch"
  op: "RefSwitch"
  input: "global_step"
  input: "global_step/cond/pred_id"
  attr {
    key: "T"
    value {
      type: DT_INT64
    }
  }
  attr {
    key: "_class"
    value {
      list {
        s: "loc:@global_step"
      }
    }
  }
  attr {
    key: "_output_shapes"
    value {
      list {
        shape {
        }
        shape {
        }
      }
    }
  }
}
node {
  name: "global_step/cond/Switch_1"
  op: "Switch"
  input: "global_step/Initializer/zeros"
  input: "global_step/cond/pred_id"
  attr {
    key: "T"
    value {
      type: DT_INT64
    }
  }
  attr {
    key: "_class"
    value {
      list {
        s: "loc:@global_step"
      }
    }
  }
  attr {
    key: "_output_shapes"
    value {
      list {
        shape {
        }
        shape {
        }
      }
    }
  }
}
node {
  name: "global_step/cond/Merge"
  op: "Merge"
  input: "global_step/cond/Switch_1"
  input: "global_step/cond/read"
  attr {
    key: "N"
    value {
      i: 2
    }
  }
  attr {
    key: "T"
    value {
      type: DT_INT64
    }
  }
  attr {
    key: "_output_shapes"
    value {
      list {
        shape {
        }
        shape {
        }
      }
    }
  }
}
node {
  name: "global_step/add/y"
  op: "Const"
  attr {
    key: "_output_shapes"
    value {
      list {
        shape {
        }
      }
    }
  }
  attr {
    key: "dtype"
    value {
      type: DT_INT64
    }
  }
  attr {
    key: "value"
    value {
      tensor {
        dtype: DT_INT64
        tensor_shape {
        }
        int64_val: 0
      }
    }
  }
}
node {
  name: "global_step/add"
  op: "Add"
  input: "global_step/cond/Merge"
  input: "global_step/add/y"
  attr {
    key: "T"
    value {
      type: DT_INT64
    }
  }
  attr {
    key: "_output_shapes"
    value {
      list {
        shape {
        }
      }
    }
  }
}
node {
  name: "tensors/component_0"
  op: "Const"
  device: "/device:CPU:0"
  attr {
    key: "_output_shapes"
    value {
      list {
        shape {
          dim {
            size: 8282
          }
        }
      }
    }
  }
  attr {
    key: "dtype"
    value {
      type: DT_DOUBLE
    }
  }
  attr {
    key: "value"
    value {
      tensor {
        dtype: DT_DOUBLE
        tensor_shape {
          dim {
            size: 8282
          }
        }
        tensor_content: "\001\000\000\300\350\r5@\010\000\000`^\3316@\371\377\377\3771\2204@\376\377\377\277\235h5@\373\377\377?\374\0375@\005\000\000\200\304n4@\367\377\377\337P\2554@\367\377\377_\247\0056@\365\377\377?\276\3547@\013\000\000`\221\2463@\367\377\377\177H\2135@\000\000\000\240\237\2044@\363\377\377\277\024\2765@\373\377\377?\224Z5@\002\000\000\200\221\3123@\363\377\377\037\345&5@\371\377\377\237\001\0102@\001\000\000\300x\3454@\374\377\377?\324\3325@\000\000\000\000\360\2525@\000\000\000\240\007\2065@\r\000\000\340\272\3275@\377\377\377\337\226_6@\004\000\000\300\343%6@\375\377\377\277e\2115@\013\000\000`\301z5@\373\377\377\037\363Z6@\367\377\377\337\000\0306@\371\377\377_2\2655@\371\377\377_2\2655@\001\000\000 a\2344@\363\377\377\037e\2634@\n\000\000\240`e4@\371\377\377_\332j4@\371\377\377_\332j4@\014\000\000 \342\2035@\r\000\000\340\272\0246@\007\000\000@\375\2265@\375\377\377\037\346|5@\375\377\377\037\346|5@\367\377\377\037\240\3046@\001\000\000 \261>5@\373\377\377\177\213\2125@\373\377\377\177\213\2125@\007\000\000\240-<5@\007\000\000\240-<5@\013\000\000\000\261\2162@\005\000\000 \024m4@\371\377\377\377i\2646@\373\377\377\037#\2406@\r\000\000@#\3315@\366\377\377_Oh4@\377\377\377\337\026\3637@\373\377\377\037\203\2165@\367\377\377\037\250\3665@\364\377\377\337m\0354@\002\000\000@\232\2754@\007\000\000\240u\3246@\007\000\000\000&\2275@\367\377\377\337p\3775@\375\377\377\037f\t6@\005\000\000`\033\3464@\000\000\000\000\300\3345@\r\000\000\240\233i4@\005\000\000 \224l5@\375\377\377\177\376\2435@\363\377\377\037\215\0077@\003\000\000\000\023W5@\363\377\377\037\215\2311@\010\000\000\300&\2265@\000\000\000\000`i4@\r\000\000@\363\2545@\374\377\377\237\024\3355@\r\000\000\240\213\2035@\r\000\000\240\213\2035@\377\377\377\337\036\3165@\010\000\000\300n\2215@\r\000\000\240\273\3053@\370\377\377\237y\3116@\t\000\000\240\350\3475@\367\377\377\3378\0005@\000\000\000`\000{4@\375\377\377_%?5@\375\377\377_%?5@\375\377\377\377|_5@\367\377\377\337\240\2545@\004\000\000 d\2275@\002\000\000\3409\3764@\002\000\000\3409\3764@\n\000\000\240\200%4@\t\000\000\200o+6@\377\377\377\337\25605@\367\377\377\337\360\3734@\n\000\000\240\270M4@\000\000\000`\360\2134@\363\377\377_<\2344@\014\000\000 \332\3455@\376\377\377\277E\3014@\t\000\000\240\240\3525@\005\000\000`+\2354@\013\000\000\300\331\2734@\373\377\377\177\213\0325@\363\377\377_\024-6@\003\000\000\240\27255@\t\000\000\240\360d6@\364\377\377\337\r\3663@\364\377\377\337\r\3663@\370\377\377\237\301\0106@\000\000\000`p\3535@\r\000\000\340\352)6@\n\000\000@\22025@\013\000\000\000\231\2035@\370\377\377?)\1776@\000\000\000` P6@\017\000\000\000le6@\005\000\000`\323W4@\000\000\000`(\3515@\003\000\000\240R\2701@\371\377\377\377\271\3234@\367\377\377\177\230\3065@\377\377\377\337F\3655@\375\377\377\277\225\0366@\363\377\377\037\035\0257@\376\377\377\277Mr5@\367\377\377\337`\2714@\014\000\000 \242\2116@\371\377\377\377Au4@\014\000\000 :\2636@\373\377\377\037CN4@\007\000\000`&\2423@\000\000\000\240_$4@\363\377\377\277\374Y5@\n\000\000@\340\3722@\013\000\000\300\301r3@\014\000\000 :t3@\373\377\377\177K}5@\003\000\000\000c\3515@\003\000\000\000c\3515@\000\000\000\240\027\2165@\000\000\000\240\027\2165@\004\000\000`\313\3046@\375\377\377\277\265\3275@\000\000\000\000\310$5@\000\000\000\240\227f4@\017\000\000\000d\3475@\t\000\000@\260\2036@\013\000\000\300\251\2377@\367\377\377\3370\2375@\364\377\377\337\235\2725@\r\000\000@C\2353@\t\000\000 7\3164@\t\000\000 \'H2@\375\377\377_\355\2666@\364\377\377\177\375\2014@\367\377\377\337\270\3534@\010\000\000\300\316\0176@\376\377\377\277\265\2352@\365\377\377\377\246\0365@\007\000\000`\036u3@\005\000\000 dY5@\005\000\000\200d\2701@\r\000\000\240;\3635@\002\000\000\200\251\3431@\001\000\000\300\300|4@\364\377\377\177\365I2@\001\000\000 \231\0222@\364\377\377\177\335\3221@\000\000\000\000\220\2612@\005\000\000\300s\3464@\014\000\000 \312\3403@\373\377\377\037SX6@\363\377\377_\034X4@\002\000\000@r\3424@\000\000\000`P#5@\375\377\377\277\035\0367@\377\377\377?_\2315@\375\377\377\037\276\0026@\005\000\000\300\373E5@\375\377\377\037f\3575@\013\000\000\000\201\0074@\373\377\377\237t\3344@\363\377\377\277\\g5@\363\377\377\277\\g5@\t\000\000\2007\r5@\367\377\377\177\010\2455@\365\377\377\377&!4@\003\000\000\240\222F5@\365\377\377\377&\2766@\007\000\000\000Fv6@\365\377\377\237\206\2164@\014\000\000 Z\3675@\010\000\000\300\216m6@\002\000\000@rN5@\003\000\000\000;y5@\371\377\377\377\241\2364@\377\377\377?\257]5@\n\000\000\240@\3354@\367\377\377\177\260\'6@\t\000\000\340\327\3544@\003\000\000\240\232Q5@\005\000\000\200\344\2615@\367\377\377\177@h5@\363\377\377_\314\n5@\013\000\000\300\321Q4@\013\000\000\300\321Q4@\003\000\000\000\343\3164@\005\000\000\340D\3765@\374\377\377?|\3205@\002\000\000\200\251\2634@\002\000\000\200\251\2634@\007\000\000\000\236l6@\t\000\000 W\3714@\t\000\000 W\3714@\367\377\377_\227&6@\367\377\377_\227&6@\367\377\377\177P\0146@\t\000\000\240x(6@\001\000\000 \341\2366@\366\377\377_O\0075@\377\377\377?\267i5@\365\377\377?V\2265@\t\000\000 \'\0305@\013\000\000\000\361#4@\r\000\000@C\0075@\373\377\377?\23495@\373\377\377\177#\2364@\373\377\377\177#\2364@\005\000\000\200\024\2076@\370\377\377\237Y\3245@\003\000\000\200)\3105@\366\377\377\277\347\3114@\004\000\000 \264\3115@\365\377\377\237\026^6@\371\377\377\277\002z5@\373\377\377\037\333\0366@\007\000\000`\226Y4@\003\000\000\000\203K5@\000\000\000`\010V4@\003\000\000\240Z|5@\365\377\377\377\306\2033@\r\000\000@\303\3304@\364\377\377\337%\3424@\003\000\000\340A\3445@\007\000\000\240=g6@\t\000\000\200\217\0074@\001\000\000 i\3524@\013\000\000\300ig4@\n\000\000@`\2244@\365\377\377?\026\2005@\373\377\377\037+\3215@\375\377\377\177N\3145@\005\000\000`\333x5@\000\000\000\000\350\3075@\t\000\000\340\367G5@\007\000\000\240\325y2@\377\377\377\337\346#8@\377\377\377\337\346#8@\000\000\000`\360z5@\363\377\377_L\2224@\375\377\377_]\3522@\001\000\000\300\250\3554@\001\000\000\300\250\3554@\t\000\000 \247\0106@\377\377\377\337\316}5@\007\000\000\240u\3005@\007\000\000\300~\2114@\t\000\000\340O\2156@\367\377\377\337\240\2176@\003\000\000\000\333,6@\000\000\000`\370I5@\t\000\000 \207\2554@\t\000\000 \207\2554@\377\377\377?\347\2304@\t\000\000\200\367\2145@\370\377\377?Y\2245@\370\377\377\237\311\0256@\005\000\000\340\034.5@\t\000\000\200\337`5@\013\000\000\000\301\\5@\373\377\377\337\013k4@\t\000\000@\250\0336@\t\000\000@\250\0336@\r\000\000\340\022\2165@\001\000\000\300\000\2525@\003\000\000\340\001]6@\373\377\377\177\203\2625@\003\000\000\240r\3365@\014\000\000 \"\3155@\t\000\000\340\367T5@\014\000\000 z\3255@\375\377\377\177\016\3276@\t\000\000 \257\0306@\r\000\000\3402z5@\n\000\000\240\340Y4@\365\377\377\377n\3205@\005\000\000\340T\3265@\003\000\000@B\2225@\007\000\000`nu5@\r\000\000\240s]6@\375\377\377\177n\3175@\367\377\377\177x?5@\010\000\000`n\3635@\373\377\377?\014\2554@\t\000\000 WV6@\t\000\000 o\0166@\367\377\377\037\360\3315@\367\377\377\037\360\3315@\367\377\377\037\360\3315@\371\377\377_\262\2005@\371\377\377_\262\2005@\002\000\000\340Iy5@\375\377\377_\035\2475@\013\000\000`aX5@\003\000\000\240\31286@\377\377\377\337f\0245@\377\377\377\337f\0245@\003\000\000\000\333e5@\373\377\377\177\373\0026@\377\377\377\337\366\2465@\013\000\000`\201]5@\005\000\000\340\254\3714@\363\377\377_\214\3135@\t\000\000\340\377\2052@\004\000\000`\333\3775@\375\377\377\377\334]5@\371\377\377_\032V6@\364\377\377\177U\2466@\364\377\377\177U\2466@\364\377\377\177\205\2715@\373\377\377?<\0175@\371\377\377\237\271\3664@\002\000\000\200\241o5@\013\000\000\0009\3056@\374\377\377\337\003\2505@\017\000\000\000\214\2015@\373\377\377\037k|6@\373\377\377\337;\2424@\365\377\377\377\226\3365@\000\000\000`P\3335@\365\377\377\237F05@\367\377\377\337\270\2425@\017\000\000\000t\2055@\017\000\000\000t\2055@\364\377\377\337u\2055@\002\000\000\340!\0025@\365\377\377\377\376J4@\365\377\377\237^\2455@\377\377\377\237\207*0@\014\000\000 \302;4@\007\000\000`>`4@\007\000\000`>`4@\371\377\377?\301>4@\376\377\377\037\226!5@\371\377\377\237\311t4@\363\377\377\037\205\3365@\377\377\377\337\236+3@\365\377\377?\326\3255@\371\377\377\377\201\2635@\373\377\377\037C14@\375\377\377\377\254A4@\366\377\377_\317B3@\364\377\377\177M\2214@\010\000\000`\226\3635@\376\377\377\037\006\3374@\013\000\000\300\031s4@\003\000\000\240\032\0026@\r\000\000\240\353m5@\363\377\377\037=\3123@\373\377\377?\\\2503@\375\377\377\377L\0356@\375\377\377\177\256\2645@\003\000\000\340\tP6@\371\377\377\377\351\2064@\007\000\000`6Z4@\002\000\000@jD4@\003\000\000\240\002:2@\370\377\377\237i76@\363\377\377\277\004\3473@\363\377\377\277\004\3473@\001\000\000 )\3426@\367\377\377\177\210\2735@\r\000\000\240S\0244@\005\000\000\340\234\2704@\365\377\377?v\2275@\005\000\000\340\274\2035@\013\000\000\000\321\3765@\013\000\000\000\321\3765@\363\377\377\037\265=4@\000\000\000\240\337\3655@\365\377\377\377\356\3454@\365\377\377\377\356\3454@\371\377\377\277\352\2676@\004\000\000 \314\3026@\013\000\000`)V6@\013\000\000`)V6@\005\000\000\200\374\0207@\365\377\377\377\226\2725@\365\377\377\377\226\2725@\373\377\377\177\333;5@\365\377\377\237\226\3422@\365\377\377\237\226\3422@\003\000\000\240\022q5@\n\000\000@\210\0204@\003\000\000\200\261\1776@\375\377\377\377\274}5@\365\377\377?\276\2335@\367\377\377\037\230\2715@\007\000\000\000\276\3174@\371\377\377\277*F6@\366\377\377\277\377\3144@\371\377\377_\002\3735@\371\377\377\377\031\3155@\014\000\000 \"\2252@\003\000\000\240\002\n5@\004\000\000`[\3325@\t\000\000\340/\2565@\003\000\000\240\222\3774@\003\000\000\240B\2526@\t\000\000@\020\3065@\371\377\377\377\201\3405@\375\377\377\377\244\3145@\375\377\377\177>\2656@\373\377\377\177[=5@\004\000\000 |\224/@\003\000\000\200\t\0006@\t\000\000\340\367\0205@\003\000\000\000\313 4@\363\377\377\277l\\6@\363\377\377_\364b5@\002\000\000\3409\3204@\374\377\377\337\273\3125@\377\377\377?/\2364@\371\377\377\277\"a4@\373\377\377\237,\2303@\002\000\000\340\021\'5@\007\000\000@ey4@\007\000\000\000\366d6@\367\377\377\037\240\3654@\367\377\377\037\240\3654@\001\000\000 Q\2755@\375\377\377_\225\0146@\005\000\000 \214j5@\t\000\000@h\2375@\373\377\377\177S16@\014\000\000 \252\0056@\375\377\377\037\006-6@\370\377\377\237Y\0336@\363\377\377\277\324\0315@\013\000\000`\031\0255@\364\377\377\337u\2673@\367\377\377_\'\2425@\007\000\000\300\026\3744@\375\377\377_%\2555@\004\000\000\300\003\3455@\005\000\000\340\224;5@\375\377\377\277\265*6@\002\000\000\200\321\0144@\000\000\000\240G\3705@\363\377\377\037m\2445@\377\377\377\337\016\0136@\007\000\000\000\266a5@\002\000\000\200Q_5@\371\377\377_\252p4@\363\377\377_<d6@\363\377\377\277\224v2@\014\000\000 \232\3314@\003\000\000\240b\2544@\t\000\000 \257W6@\010\000\000`\366\2406@\364\377\377\177-*5@\r\000\000@\263f6@\363\377\377\277\254d1@\363\377\377\277\254d1@\001\000\000 i\2445@\001\000\000 IC2@\001\000\000 IC2@\373\377\377\337\003\2402@\371\377\377\237\031\2773@\375\377\377_\235N5@\014\000\000\200\022\0217@\014\000\000\200BZ6@\003\000\000\000\323\2106@\n\000\000@\340\2524@\007\000\000\300\23634@\365\377\377\237&\2745@\002\000\000\200A\3724@\002\000\000\200A\3724@\t\000\000\340\347\2653@\t\000\000\340\347\2653@\t\000\000 \257\0375@\001\000\000 \321\0036@\000\000\000\0008\3114@\363\377\377\037\375\2325@\364\377\377\337mU6@\375\377\377_\035\2135@\370\377\377?\371O6@\004\000\000 \224\2045@\363\377\377\037\315Q5@\375\377\377\037\376\2325@\373\377\377?\204\2454@\016\000\000\000\034\2354@\014\000\000\200\00275@\001\000\000\300h\3275@\000\000\000\240\307\0264@\363\377\377_dB5@\005\000\000\200\314\0175@\000\000\000`\260\0056@\r\000\000\240\333g2@\367\377\377\037\010,6@\013\000\000\300\231x5@\010\000\000`F\2305@\013\000\000\000\311E6@\002\000\000\200\301P5@\363\377\377_\364\2515@\007\000\000@-\2236@\374\377\377\337s\0216@\004\000\000 \214-6@\003\000\000@Z\3615@\000\000\000\000\240\3134@\001\000\000 Q\3405@\003\000\000\240\002\3245@\365\377\377\377&w5@\005\000\000\340d%4@\363\377\377_4\3055@\363\377\377_\034\3425@\367\377\377\177\220\0056@\017\000\000\000\324\3335@\373\377\377\337\223!5@\370\377\377?1\2646@\371\377\377?AT4@\375\377\377_\375\2705@\375\377\377\177\026&8@\t\000\000\200W`3@\371\377\377\377\261\3705@\005\000\000\340,\2375@\r\000\000\240[\0375@\005\000\000\200\204\2305@\007\000\000\000\336S6@\363\377\377_d06@\003\000\000\240\312D5@\007\000\000\240=\3655@\363\377\377\277|q5@\363\377\377\277|q5@\373\377\377\237\254\3724@\375\377\377\277\035\2615@\016\000\000\000,\0024@\007\000\000@\235B5@\377\377\377?\207s6@\371\377\377\277\032\3164@\371\377\377\377q\3755@\r\000\000\340\322j6@\014\000\000\200J\3365@\375\377\377\037\346F6@\000\000\000\0008\2023@\000\000\000`\300\3415@\371\377\377_2\2475@\373\377\377\1773\3735@\371\377\377?\221\3744@\363\377\377_\324$6@\376\377\377\0376&5@\363\377\377\277l\3525@\003\000\000\000\273\2176@\363\377\377\277\374x5@\007\000\000@U\2056@\r\000\000\240\363\2556@\003\000\000\240\242\2344@\374\377\377?\224~5@\005\000\000 d\2133@\371\377\377\237\201)5@\371\377\377\237\201)5@\003\000\000\240j\0236@\004\000\000\300;+6@\367\377\377\037 \3055@\002\000\000\340i\2072@\002\000\000\200\371\2664@\n\000\000@ y4@\367\377\377\177(W5@\007\000\000@\025\0256@\003\000\000\240\022\3764@\375\377\377\277\325\3125@\367\377\377\177P\0215@\013\000\000`\361N6@\005\000\000\200\274{5@\003\000\000@\372#7@\365\377\377\237f\3673@\364\377\377\177\255\2125@\r\000\000@\213\3574@\r\000\000@\213\3574@\002\000\000\200IZ3@\013\000\000\300Q`3@\013\000\000\300Q`3@\013\000\000\000\261}5@\r\000\000\340\"\3514@\r\000\000\340\"\3514@\371\377\377_R\2064@\005\000\000\340\314\0074@\007\000\000@\315e4@\013\000\000`\261\3114@\375\377\377_\r\0247@\365\377\377?&86@\370\377\377\237y\2235@\370\377\377\237y\2235@\007\000\000@E\2074@\001\000\000\300\330\2605@\373\377\377\037\323\2326@\375\377\377_m\2264@\000\000\000`0\3325@\003\000\000\200\311\r6@\005\000\000`\23332@\373\377\377\337+\0055@\374\377\377?L\3245@\017\000\000\000,\3065@\375\377\377\377D\2305@\005\000\000 \344w5@\370\377\377?\251\3455@\005\000\000`#\2064@\014\000\000 \262\3443@\n\000\000@\320 4@\377\377\377\337F\2005@\367\377\377\337@s5@\364\377\377\177\375\3435@\364\377\377\337\275\0136@\373\377\377?\304y4@\005\000\000 \214\t5@\000\000\000\000@\2405@\367\377\377\177\240\3675@\365\377\377\377\366\0256@\007\000\000\300\206\3064@\r\000\000\240\02345@\367\377\377\337\200K5@\377\377\377\337n\2245@\365\377\377\237F\2705@\010\000\000\300\316\2575@\010\000\000\300\316\2575@\000\000\000\240\367\2627@\003\000\000\000\263U3@\n\000\000@ 05@\004\000\000`3S6@\001\000\000\300\200\0034@\r\000\000\240{p1@\371\377\377_:j3@\010\000\000`\366\r6@\375\377\377_\355\3453@\363\377\377\037Es5@\003\000\000\240\372M6@\371\377\377?\341`4@\000\000\000\000\230\3113@\002\000\000@z\t5@\370\377\377?\251\2755@\370\377\377?\251\2755@\003\000\000\340!\3615@\374\377\377\337\243\3225@\375\377\377\377\334\3304@\370\377\377\237i*6@\370\377\377\237i*6@\367\377\377\037(g5@\014\000\000\2002r6@\375\377\377\377t\2056@\375\377\377_m\3505@\007\000\000`\356?5@\371\377\377\377\361\3324@\363\377\377\037\215\3165@\007\000\000\240\335r6@\367\377\377\037\340]6@\000\000\000\000@+6@\375\377\377_]\2265@\r\000\000\240s\3144@\366\377\377_\337\0035@\366\377\377_\337\0035@\007\000\000\300&\3534@\005\000\000`\263.5@\t\000\000@\300\3635@\375\377\377\277\215\2265@\003\000\000\200\271\3255@\016\000\000\000\234-5@\t\000\000 _\3175@\004\000\000\300\363z5@\014\000\000\200\262.5@\373\377\377\177\033\2445@\376\377\377\037\026;5@\001\000\000 \311^5@\376\377\377\037f\3034@\367\377\377\337\240f5@\363\377\377\037\355\2256@\363\377\377\277\31426@\r\000\000@\213G4@\003\000\000\240*\3745@\363\377\377_<\3276@\r\000\000\340\022\3775@\007\000\000\300f|2@\371\377\377\277\372y4@\t\000\000\340\337{5@\t\000\000\200\007=5@\017\000\000\000\364\"6@\370\377\377\237)\2045@\t\000\000 \207\2575@\013\000\000\000955@\t\000\000\200\377n5@\r\000\000\340\nN5@\013\000\000\000\201\0315@\000\000\000`P15@\373\377\377\237|\3052@\365\377\377\377\376\2105@\375\377\377\277\365\3415@\t\000\000\340\217\2665@\t\000\000\340\217\2665@\371\377\377\377)\0176@\365\377\377\377\266\3075@\000\000\000\240_\3605@\003\000\000\240\372\2645@\010\000\000\300\01656@\004\000\000\300\273\2355@\366\377\377\277Ww5@\005\000\000\300#f5@\375\377\377\377\024y1@\375\377\377\377\024y1@\371\377\377\377\301T2@\000\000\000\000(\3115@\n\000\000\240\330k3@\375\377\377_5\3315@\013\000\000\300\t\3731@\375\377\377\2775\2625@\013\000\000\300\301\3241@\013\000\000\300\301\3241@\005\000\000 \024\3734@\365\377\377\377\036t4@\014\000\000\2002\3145@\014\000\000\2002\3145@\t\000\000 \267\3243@\375\377\377_\215\2675@\001\000\000\300(\0316@\014\000\000\200B\"2@\t\000\000 \007\3005@\t\000\000\340\267o5@\003\000\000\340\311t6@\002\000\000\340i95@\363\377\377\277\\V6@\003\000\000\200A\2616@\000\000\000\000\300R5@\371\377\377\277\352\2255@\365\377\377\237.\0066@\003\000\000@r\2116@\014\000\000\200\302\2175@\n\000\000@XY5@\367\377\377\337\330\3703@\013\000\000`\231\2215@\365\377\377\377\256\3314@\000\000\000\000\300\0206@\014\000\000 \252\3132@\001\000\000 qM6@\007\000\000@\22566@\n\000\000\240\340\2104@\374\377\377\337\253\'6@\000\000\000\000\310\0015@\r\000\000\340\252Y2@\007\000\000\300\206\0211@\365\377\377\377\376i5@\374\377\377\337\363\2715@\375\377\377\177\376\3055@\t\000\000\200\007`5@\007\000\000`\236`5@\001\000\000\300\360>3@\003\000\000\340\221\3036@\376\377\377\177\276\n3@\013\000\000`\241\3042@\370\377\377\237y\0336@\376\377\377\277\225a2@\005\000\000`cy2@\377\377\377??\0043@\363\377\377\037\325\3724@\363\377\377\277l32@\374\377\377?t:6@\367\377\377\037\010\0076@\002\000\000\200!\3233@\003\000\000\240R-5@\365\377\377\377\036\3375@\000\000\000\000XK6@\364\377\377\337uU5@\373\377\377\037\273%6@\t\000\000\2007\3655@\t\000\000\340\307\2605@\003\000\000\340\261\2445@\377\377\377\337\256\3473@\365\377\377\377\356\3365@\371\377\377\277Z\2234@\375\377\377\377D\3324@\363\377\377_\024\0035@\376\377\377\277\03565@\014\000\000 B\2376@\001\000\000\300\00085@\005\000\000\340\254\2065@\373\377\377\337C\2674@\371\377\377\237\t\3614@\007\000\000@\23524@\r\000\000\240s\3345@\003\000\000\200\251\3625@\371\377\377?\t\2434@\374\377\377\237\214\0106@\003\000\000\240\372O5@\365\377\377?\236\2673@\003\000\000\240\322\0246@\375\377\377\2775W6@\004\000\000 4\3445@\t\000\000 O\3705@\367\377\377\0370I5@\364\377\377\337\315t5@\373\377\377\177\363\3051@\365\377\377\237\216z5@\n\000\000@\360-4@\000\000\000\000x\0055@\n\000\000\240\220r5@\007\000\000`\326Y4@\365\377\377\237nK5@\370\377\377\237a\2635@\367\377\377\037Ph6@\n\000\000\240\230\2404@\014\000\000\200\322\3325@\377\377\377?\227\2225@\013\000\000\000A>6@\002\000\000@\032s5@\367\377\377\037\350\3434@\003\000\000\340y\0136@\005\000\000\300\203\0315@\013\000\000`I\3714@\367\377\377\337Xo5@\007\000\000\000\006W2@\001\000\000 i@2@\003\000\000\000K\3544@\t\000\000\340g^5@\373\377\377?\324}2@\367\377\377_/\2325@\001\000\000\300\360q5@\001\000\000\300\360q5@\367\377\377\337X\3055@\375\377\377_\335N5@\375\377\377_\035\n4@\375\377\377_\035\n4@\n\000\000\240\230\3244@\373\377\377?\034\3564@\364\377\377\177\215\3255@\367\377\377\037\360\3656@\365\377\377\377^\3475@\377\377\377\337\316\2706@\001\000\000\300\270\2234@\367\377\377\337\360o4@\367\377\377\337\360o4@\371\377\377\377q35@\371\377\377\377q35@\014\000\000 \272\2635@\001\000\000\300h\3174@\001\000\000\300h\3174@\005\000\000\300;g5@\r\000\000\340\362\3552@\367\377\377\037(}5@\367\377\377\037(}5@\373\377\377\037c]5@\373\377\377\037c]5@\r\000\000\340\202\2674@\367\377\377\037\240L5@\003\000\000\000ST5@\375\377\377_m36@\367\377\377\177`)6@\371\377\377_\312\2235@\370\377\377?!\2165@\363\377\377\037\235\2045@\375\377\377_\265\2015@\363\377\377\037\305,4@\007\000\000\240]\3435@\371\377\377_\352\2235@\003\000\000\240b\2345@\003\000\000\240\212\3745@\003\000\000@\022\2515@\t\000\000@\210\2105@\366\377\377\277\177\3614@\371\377\377\277\022\3016@\004\000\000`#\3645@\371\377\377\277z\3074@\371\377\377?9\3173@\003\000\000\340\331q6@\364\377\377\177\345\2754@\000\000\000\240\217>5@\364\377\377\337U\0174@\371\377\377\237)\2072@\371\377\377\377\231\2542@\365\377\377?\036\3471@\001\000\000\300@W+@\377\377\377?\217\3004@\010\000\000`V\3025@\366\377\377_\307E5@\t\000\000\340\357\3255@\363\377\377_\034\3346@\t\000\000\200\247\3563@\t\000\000\200\247\3563@\375\377\377\177\326\2515@\373\377\377?,\2464@\r\000\000\240{M5@\371\377\377\377\261\3725@\363\377\377\037U\2764@\004\000\000 Dy6@\001\000\000 \311>5@\016\000\000\000\354\0303@\007\000\000\240\r\2375@\r\000\000\340\202g4@\007\000\000@\235\2524@\001\000\000 )\2325@\005\000\000\300\233)5@\000\000\000\000\220\2233@\377\377\377\337\316h6@\007\000\000\300>\3664@\365\377\377\377\216\3705@\014\000\000 \312+5@\363\377\377\037\205\2515@\005\000\000`s\0244@\377\377\377?\027\2545@\371\377\377\277\212\3465@\003\000\000\240\342{5@\007\000\000\240\005)6@\363\377\377\037\225Y6@\007\000\000`\216p4@\367\377\377\177\32025@\n\000\000@\01025@\371\377\377\377\371\2455@\r\000\000\240\213\3012@\363\377\377\277\024r4@\370\377\377\237\371\0206@\003\000\000\240\352\3363@\363\377\377\037]\2144@\373\377\377\037\203y5@\371\377\377_\20276@\013\000\000\000\361\3563@\n\000\000\240\370o5@\r\000\000\240\223\3555@\373\377\377\237\024I4@\373\377\377\177\003u5@\000\000\000\000`\3055@\r\000\000\340*O5@\003\000\000\000\33366@\003\000\000\000\33366@\t\000\000\340\317\3605@\007\000\000\300\326\3334@\007\000\000\300\326\3334@\371\377\377\277\202-6@\363\377\377_\334\2415@\363\377\377\277\354[3@\r\000\000\240[\0005@\365\377\377?605@\375\377\377_\225\2305@\375\377\377\037\226\2615@\r\000\000\240\203\2445@\371\377\377\3771\2465@\371\377\377\377I\2315@\367\377\377\3378/6@\n\000\000@H\0174@\r\000\000\240\323\0264@\371\377\377\237\351\3504@\367\377\377\337\240S4@\367\377\377\337\240S4@\005\000\000\340\304t5@\004\000\000 l\2255@\004\000\000 l\2255@\005\000\000\3404^5@\373\377\377\237\234c5@\000\000\000\240\307\2753@\375\377\377\377\324<4@\017\000\000\000L\3625@\365\377\377?&\3764@\365\377\377?&\3764@\014\000\000\200\352\2065@\371\377\377_z\3174@\r\000\000\240\373;4@\003\000\000\240\n\n6@\365\377\377\237f\0034@\377\377\377?\327\3145@\014\000\000 B\0356@\014\000\000 B\0356@\013\000\000\000\021]6@\r\000\000\240\213\3055@\r\000\000\240\213\3055@\r\000\000\240#\2016@\366\377\377\277_w5@\366\377\377\277_w5@\371\377\377\277\272\2704@\367\377\377\177P\0353@\007\000\000\000\366^5@\365\377\377\237\246\2404@\013\000\000\300i\2055@\005\000\000\200L\2375@\016\000\000\000\334\3204@\016\000\000\000\254\2424@\364\377\377\337}\2474@\365\377\377?\216\2555@\375\377\377_e\2005@\001\000\000 i\0266@\017\000\000\000\014\2015@\014\000\000 \002\3465@\367\377\377\177\200p5@\003\000\000\240z\2755@\003\000\000\240z\2755@\370\377\377?\201\3075@\r\000\000@\233N6@\000\000\000\000\030t5@\375\377\377_-N2@\010\000\000\300v\3035@\377\377\377\337\326\3235@\r\000\000\340\252\2315@\377\377\377?\267#6@\363\377\377\277\224m5@\003\000\000@\342Q7@\003\000\000@\342Q7@\373\377\377\337\363\0265@\376\377\377\037fZ5@\371\377\377\377A\2775@\367\377\377\177(V4@\367\377\377\177\330B5@\003\000\000\000{\2725@\000\000\000\000\340o5@\t\000\000\240P\3065@\367\377\377\037\010\3545@\375\377\377_E75@\363\377\377\277D\2215@\014\000\000\2002\3415@\345\377\377\037\3412+@\375\377\377\037v\3025@\005\000\000\300S\2604@\014\000\000\200\252\3655@\013\000\000\300\241;5@\007\000\000\240MQ5@\t\000\000 \21735@\367\377\377\177\340\2655@\365\377\377\237\266E4@\017\000\000\000$\2315@\003\000\000\240*\3555@\000\000\000\000\370)5@\007\000\000\000\226\2215@\014\000\000\200B\3434@\007\000\000\000\03686@\375\377\377\177\036\2266@\366\377\377\277\257\3614@\r\000\000\240\253\3654@\365\377\377?.\3455@\375\377\377\377LP5@\000\000\000\2407\2516@\r\000\000@\303\3273@\002\000\000\200\311\0364@\007\000\000\240\215\2545@\373\377\377\177\213\2245@\002\000\000@\032\3074@\364\377\377\337\245\0326@\377\377\377?\227\2722@\003\000\000@BZ6@\001\000\000\300\260\2504@\000\000\000`\240^4@\374\377\377\2374)8@\r\000\000\240\323\0355@\r\000\000\240\323\0355@\375\377\377_\275\2703@\004\000\000`\003z5@\367\377\377\177\230\3454@\370\377\377?\321\0346@\007\000\000\300NO5@\365\377\377\377f\0016@\t\000\000\340\24736@\371\377\377\277\372)6@\363\377\377\277\004(5@\t\000\000 \'*3@\363\377\377\277\344B4@\363\377\377_\344P2@\007\000\000\000\266E6@\t\000\000 \377\3032@\373\377\377\037C\3635@\373\377\377\037C\3635@\363\377\377\277\224\3245@\365\377\377?fx5@\010\000\000\300\366\3675@\365\377\377\377V:5@\364\377\377\337\355\3754@\376\377\377\177\016G3@\367\377\377\037\320\3315@\013\000\000\000q\2633@\t\000\000\240\000\0326@\005\000\000\200\274K4@\002\000\000@\032\\5@\r\000\000\340\002\2274@\r\000\000\340\002\2274@\002\000\000@\252\2212@\374\377\377?\254\3435@\377\377\377?\327\3245@\003\000\000@\222#6@\373\377\377\177K\2635@\371\377\377\377I;6@\371\377\377_\342\3744@\001\000\000\300h\2326@\364\377\377\337\225\3203@\376\377\377\177\276_5@\007\000\000\000>Q5@\007\000\000\000>Q5@\007\000\000\240\205}3@\373\377\377?l\3433@\r\000\000@S\2245@\r\000\000@S\2245@\003\000\000\340\351\3235@\002\000\000\340\261\2423@\007\000\000\240\035\3235@\001\000\000\300`m5@\377\377\377?/c6@\365\377\377\237&\2165@\365\377\377\377v\2445@\r\000\000@kJ5@\000\000\000`\030\\5@\364\377\377\337]\2245@\001\000\000\300\020\2216@\t\000\000 \237g5@\373\377\377\177\273\\5@\000\000\000`\240O5@\014\000\000\200\032\2455@\367\377\377\177\010:6@\003\000\000\3401\2666@\003\000\000\240\022\2765@\013\000\000`\231\3264@\002\000\000@2\3374@\004\000\000`\353\2305@\013\000\000`\001+5@\007\000\000@%o6@\363\377\377_\034\0064@\t\000\000 /\3505@\005\000\000\200D\3054@\377\377\377?\367U3@\004\000\000 \264\3305@\375\377\377_\r]5@\007\000\000\000\206\3465@\364\377\377\177\245\3225@\373\377\377\237\364\2044@\005\000\000 \364\2464@\371\377\377\377\021\2114@\371\377\377\277\23214@\001\000\000\300\300\1775@\370\377\377?\371\2635@\370\377\377?y\0066@\373\377\377\037k\2506@\001\000\000 y\2415@\013\000\000\300\001\2763@\365\377\377?6\3115@\363\377\377\277\274\t6@\365\377\377\237\356\'5@\013\000\000`Y\2045@\363\377\377\277L\2765@\363\377\377\037\375i5@\371\377\377_:\2645@\003\000\000\240\242\0236@\r\000\000@\323\3415@\004\000\000\300\013p6@\013\000\000\300Yv5@\363\377\377\277\304\2645@\014\000\000 \362?5@\007\000\000\300\326b5@\003\000\000@\032l6@\377\377\377?o\2364@\000\000\000\240\'\2765@\003\000\000\000\373\0256@\007\000\000@}\3565@\007\000\000@}\3565@\373\377\377\237t\2724@\367\377\377\037\350\3375@\001\000\000 av5@\001\000\000 av5@\001\000\000 ))5@\t\000\000\200\207\2205@\r\000\000\340\342I5@\n\000\000@\200u5@\000\000\000\240\367\0205@\367\377\377_G:6@\014\000\000\200*}6@\003\000\000\000\233{6@\013\000\000\300\361\3065@\013\000\000\300\361\3065@\375\377\377_\255\2135@\375\377\377_\255\2135@\363\377\377_\354\2715@\000\000\000\000\010\3144@\373\377\377?\314\3634@\r\000\000\240+u5@\r\000\000\340\362\2525@\364\377\377\177M\3775@\013\000\000`1\3265@\376\377\377\277=x4@\004\000\000\300\273\0316@\375\377\377\377Ls6@\007\000\000@\235\3275@\375\377\377\0376\2675@\376\377\377\277\225M4@\376\377\377\277\225M4@\005\000\000 \254o4@\365\377\377?\336\0215@\003\000\000\340\271\3425@\013\000\000`\271\0246@\366\377\377_w\2644@\005\000\000\3404\3305@\004\000\000\300\013\2715@\373\377\377\037\033\3115@\007\000\000@%\2274@\007\000\000@\315\3624@\t\000\000\340\267\3544@\004\000\000\300\243\2345@\364\377\377\337\355\3265@\364\377\377\337\355\3265@\n\000\000\240\360\2474@\371\377\377\377\311\3115@\010\000\000\300~\2015@\371\377\377\277\202\0205@\376\377\377\177\356[4@\005\000\000\340\234\3275@\373\377\377\037\223~4@\013\000\000\0001\2145@\000\000\000\000\240\3440@\003\000\000\240r\3225@\r\000\000\340z\2005@\007\000\000\300\216D5@\000\000\000`\230O5@\r\000\000\340\312\3065@\367\377\377_\317\3575@\375\377\377\177\366\2105@\367\377\377\037Xv2@\371\377\377\237\321\0315@\017\000\000\000\014\3665@\007\000\000\2405d5@\373\377\377?L\0105@\371\377\377\277\232K5@\013\000\000\000q\3655@\010\000\000`\376\3015@\003\000\000\000s\3554@\t\000\000\200_\3114@\t\000\000\340\247v5@\013\000\000`\211\2744@\014\000\000\200\"\2675@\005\000\000\300\353\3714@\375\377\377\037\246e6@\t\000\000\340\027T6@\r\000\000@\373\2107@\364\377\377\337\265\0336@\016\000\000\000T\3614@\016\000\000\000T\3614@\364\377\377\337\rn4@\375\377\377\277U\2126@\371\377\377?9Z5@\005\000\000\300S\3474@\377\377\377\337N\3375@\375\377\377\377\204\3225@\013\000\000\300\241D5@\373\377\377\037k\2675@\013\000\000`\201t5@\013\000\000`\201t5@\013\000\000\000\331\2125@\013\000\000\000\331\2125@\375\377\377\037\306\3645@\377\377\377\337\026\3143@\013\000\000\300Y\3724@\370\377\377\237\251\2255@\002\000\000@:62@\363\377\377_\344\3445@\t\000\000 \317{4@\r\000\000\3402\2325@\005\000\000\200\234\3424@\367\377\377\277\257\0356@\374\377\377\337\223\3625@\370\377\377\237\231)6@\001\000\000\300\000\0165@\373\377\377\037\003b5@\367\377\377_\337\2506@\376\377\377\277\375G5@\005\000\000\200\014T4@\375\377\377_5\3265@\376\377\377\277\365\3464@\001\000\000\300h\\5@\375\377\377\377\224\3624@\005\000\000\200\\\0146@\005\000\000\200\334\3642@\010\000\000\300N18@\364\377\377\177U94@\002\000\000@*.5@\000\000\000\0000\0076@\003\000\000\000\313l6@\001\000\000 \321\3275@\367\377\377\037\230\2354@\010\000\000`V}5@\370\377\377\237\361\2765@\363\377\377\277\324\n6@\n\000\000\240\200k5@\373\377\377\177\223$7@\367\377\377\177p\2275@\t\000\000\340\027\0272@\363\377\377\277\024f4@\005\000\000\200L\3611@\375\377\377\377DS2@\007\000\000\000~\n6@\002\000\000\200)\3471@\375\377\377_\315?2@\005\000\000`;q4@\367\377\377\177\000\3152@\014\000\000\200Z\2331@\005\000\000\200d\3331@\373\377\377\337S\3701@\365\377\377?\316\3675@\375\377\377\277E\"1@\007\000\000@m\3704@\007\000\000@m\3704@\371\377\377?\221:4@\371\377\377\277B\2704@\013\000\000\000\321\3065@\371\377\377\377Y\0165@\001\000\000\300\240f1@\375\377\377\377\364\0142@\005\000\000 d\0375@\367\377\377\177`a4@\005\000\000\340\364\3034@\377\377\377?\227r5@\371\377\377\277ZL2@\371\377\377?\241\2600@\000\000\000\000\270\3730@\002\000\000\340\361Y2@\004\000\000\300\023\3355@\363\377\377\037-\3674@\007\000\000\000\216\3051@\007\000\000\000\306v2@\377\377\377?\227\2325@\013\000\000\000I|5@\366\377\377_\01755@\004\000\000\300\033\3425@\366\377\377\277\217k2@\000\000\000\240/85@\005\000\000\300SU2@\375\377\377\377|\0044@\366\377\377\277\35765@\377\377\377\337\356A4@\013\000\000`ax4@\003\000\000\3409\3576@\013\000\000\300)\2054@\r\000\000\240\223V1@\000\000\000\240\337\3541@\000\000\000\000\010\3751@\376\377\377\277\215v4@\366\377\377\277GH1@\t\000\000\200\267\2145@\365\377\377\377V\3343@\367\377\377\337\210\0174@\002\000\000\200!T4@\014\000\000\200\322?4@\366\377\377\277?\0275@\007\000\000\240\265_6@\r\000\000\340\242\3641@\376\377\377\037\036\3764@\366\377\377\277\'\3604@\363\377\377_\224~5@\004\000\000`c\3035@\001\000\000 q\2215@\373\377\377?\324G4@\374\377\377?\304\0306@\r\000\000@\363b6@\373\377\377\237L\2464@\367\377\377\037p\2624@\000\000\000\240\237\3561@\007\000\000\000\026\2776@\377\377\377\337N\2705@\377\377\377?\377\2204@\003\000\000\340\251\3705@\370\377\377\337\210g1@\367\377\377\177\350]1@\367\377\377\337\220\2142@\377\377\377?\327v4@\t\000\000\340\337\"5@\001\000\000 Y\2535@\371\377\377_bU5@\373\377\377\037\023\2101@\001\000\000 9\0254@\r\000\000\340\362\3405@\013\000\000\300aq3@\r\000\000\240{\0264@\r\000\000\240{\0264@\r\000\000@\313]1@\373\377\377\237d`3@\364\377\377\337\375C4@\014\000\000\200\032\0316@\375\377\377_\235\3513@\005\000\000 <\0033@\373\377\377?\014x4@\373\377\377?<\2064@\376\377\377\277]\3303@\377\377\377\337\276\3075@\365\377\377?F36@\005\000\000\340L\3033@\001\000\000 \321\3213@\001\000\000 \321\3213@\377\377\377?\227\0015@\000\000\000` 03@\375\377\377\177^\2315@\366\377\377\277W!4@\001\000\000 Y\2715@\r\000\000\340\272\2236@\003\000\000\000\333\3503@\376\377\377\177\316\3641@\367\377\377\037(^5@\373\377\377\037\323,5@\371\377\377\377\241\3005@\013\000\000\300A\0055@\t\000\000\240H\3615@\367\377\377_o\2215@\365\377\377?\356\3653@\375\377\377\377\014\0174@\363\377\377\037%u4@\013\000\000`A\0265@\374\377\377\237\024j1@\004\000\000 \224!7@\007\000\000\300F\3773@\013\000\000\300\001\2611@\016\000\000\000\314\3521@\r\000\000@\003l5@\r\000\000@\003l5@\000\000\000\000\350n4@\363\377\377\277\\\0334@\363\377\377\277\\\0334@\001\000\000\300\03045@\374\377\377\237d\2605@\363\377\377\037\245\3504@\367\377\377\037\360\t4@\t\000\000\200?\3463@\003\000\000\000\233\0175@\363\377\377\277d\0175@\373\377\377\337\343\2763@\375\377\377\037\266\2345@\364\377\377\1775F6@\366\377\377_\177^5@\005\000\000 \24434@\376\377\377\037\216\0165@\007\000\000@E\2554@\013\000\000`Q\3524@\005\000\000\200\034\0135@\005\000\000\200\034\0135@\013\000\000\300\341%6@\364\377\377\177M\3215@\010\000\000\300F\2725@\366\377\377\277\337W4@\367\377\377\177`?5@\367\377\377\177`?5@\n\000\000@ \2362@\007\000\000\000\266\2341@\005\000\000\300\263&2@\002\000\000\200Q+5@\373\377\377\177\35305@\371\377\377\377\351x5@\t\000\000 W\0322@\013\000\000\0001B2@\376\377\377\037\026\2321@\007\000\000@\345T2@\000\000\000\240gx2@\375\377\377_\335S4@\377\377\377?\267L5@\364\377\377\177=\2565@\013\000\000`q?1@\363\377\377\037\205\2554@\000\000\000\240g\3134@\016\000\000\000d\0005@\373\377\377\177{\2346@\364\377\377\337m\0102@\375\377\377\377d\r2@\375\377\377_U\3564@\367\377\377\277\007\3035@\005\000\000\300Kf4@\n\000\000\240\360\2254@\373\377\377\237\014\0265@\367\377\377\337\350\2675@\367\377\377\337\320\0276@\007\000\000`\026\2103@\007\000\000\0006\2132@\375\377\377\377\204\2205@\007\000\000\000\236\1774@\003\000\000\340y\2305@\375\377\377\377\364L5@\000\000\000\240\037\2065@\000\000\000\000\220N5@\367\377\377\037\360y5@\373\377\377?tg5@\373\377\377?tg5@\t\000\000\200wI2@\371\377\377\277\212\0166@\371\377\377?Y\2034@\363\377\377\277L(2@\007\000\000\2405\2715@\007\000\000\2405\2715@\371\377\377\237\301\3504@\013\000\000\300\001)2@\010\000\000 \277k1@\373\377\377?\014Y2@\003\000\000\000#;4@\r\000\000\240\273b4@\365\377\377\237\316\3345@\365\377\377\237\376-6@\371\377\377\3771\3205@\005\000\000`;\2104@\001\000\000\300XY4@\n\000\000\240\010,2@\t\000\000\340\367a2@\000\000\000`\020D3@\376\377\377\037n\3734@\002\000\000@\"V2@\007\000\000`\306.2@\007\000\000\000N\2003@\007\000\000`Ft4@\010\000\000`&\3015@\373\377\377\237\234l5@\366\377\377\277\277\2774@\007\000\000\000\036=2@\364\377\377\177\215\3414@\364\377\377\177\215\3414@\373\377\377\337s\2064@\365\377\377?\276\3064@\t\000\000\240\330\3315@\373\377\377\237\31415@\363\377\377\0375/4@\375\377\377\377\354\0040@\004\000\000`\223\3465@\004\000\000`\223\3465@\t\000\000\340\377\2334@\005\000\000 D\2344@\373\377\377\177\303\3032@\007\000\000\300.\0132@\363\377\377\277\034\0006@\002\000\000\340\211\3433@\002\000\000@B74@\t\000\000\240\310\3655@\007\000\000\240\rw1@\363\377\377\277\354\0346@\363\377\377\277D%5@\000\000\000\240\017\3132@\000\000\000`\35043@\376\377\377\277\035o4@\367\377\377\337\370\2673@\010\000\000\300\376\t7@\375\377\377\377$F4@\366\377\377\277g*2@\377\377\377\337\256R5@\013\000\000`Q\0027@\366\377\377\277\017d5@\371\377\377_B\2636@\001\000\000\200)\0021@\r\000\000\240\003)4@\376\377\377\177V$3@\363\377\377_\324\2604@\363\377\377_\324\2604@\004\000\000`\273\0216@\004\000\000`\273\0216@\r\000\000@#56@\377\377\377\177\206\0011@\001\000\000 Q\0235@\n\000\000\240\010\2653@\n\000\000\240\010\2653@\007\000\000\240-\3065@\375\377\377\177\226g6@\002\000\000@\032\0315@\000\000\000` \"2@\365\377\377?\036\3225@\363\377\377_\034m6@\000\000\000\000\24044@\363\377\377\277\344J5@\003\000\000@\242>1@\367\377\377\337\21082@\016\000\000\000\314\3612@\t\000\000 \337\2453@\t\000\000 \337\2453@\n\000\000\240(\0255@\016\000\000\000\004\2513@\007\000\000\3006\2022@\363\377\377_\364v1@\013\000\000\300\331 2@\364\377\377\337\005f5@\r\000\000@\363C2@\007\000\000`\206\3224@\377\377\377\337\026>4@\002\000\000\200\211v5@\003\000\000\000[Z2@\376\377\377\177\226\2644@\363\377\377\037e\1775@\373\377\377\177K\3135@\371\377\377_*\2032@\371\377\377_\252\0304@\007\000\000\300>\3164@\376\377\377\177\236\3371@\373\377\377\177k\0235@\004\000\000`\233{5@\373\377\377?TZ5@\013\000\000`\001\1774@\374\377\377\237\364\2221@\375\377\377\377da4@\371\377\377_z\2155@\365\377\377?\306\3025@\t\000\000\340G15@\363\377\377\037m\2512@\003\000\000\240\332^6@\002\000\000\340i?2@\000\000\000\240\267\3712@\373\377\377\337\333\3431@\367\377\377\177\340;2@\000\000\000\000\360`5@\367\377\377\337\230\"5@\367\377\377\037\370\0146@\007\000\000\240\225g5@\005\000\000\340\374\3744@\r\000\000@\353*2@\033\000\000@\307\".@\r\000\000\340\302\3511@\371\377\377\377\371Y1@\365\377\377\377\266?1@\371\377\377_\252y4@\007\000\000`\336\3074@\000\000\000`\020\2725@\013\000\000\000\341\3354@\r\000\000\340\212W5@\001\000\000 !*4@\371\377\377_2\2365@\016\000\000\000\324\2034@\376\377\377\177\206\0322@\003\000\000\000ci4@\374\377\377?\034\2146@\377\377\377\337F\0076@\001\000\000 \031\0255@\363\377\377\277\234{4@\014\000\000 :46@\371\377\377\377\241\3225@\r\000\000\240\273m6@\370\377\377\237\231\0376@\007\000\000\000\306\3605@\r\000\000\240\333\3255@\005\000\000\200D-4@\374\377\377?|\2325@\376\377\377\037\006`2@\005\000\000\200dx4@\005\000\000\200dx4@\373\377\377\177\013\r6@\371\377\377\377\341b5@\365\377\377?\016\2005@\371\377\377\377\021\2755@\007\000\000\240\325G6@\007\000\000@\235\0042@\014\000\000 z\3021@\375\377\377_=!3@\000\000\000`\200\3633@\365\377\377\377f\0216@\374\377\377\237|\3005@\365\377\377?\026\2364@\005\000\000\340\37415@\005\000\000 \204\3613@\373\377\377\037\013\2731@\014\000\000 :Z1@\373\377\377\177\233C2@\000\000\000\240\207O5@\367\377\377\037p\2635@\376\377\377\037\216\3272@\365\377\377\237\366\3211@\373\377\377\237\324Y2@\014\000\000 R-6@\367\377\377\277\277\2315@\367\377\377\177\210F5@\004\000\000`\363\2015@\365\377\377\377\336a5@\t\000\000\200\367V4@\366\377\377_w\2622@\004\000\000`\203\r6@\003\000\000\000CB5@\005\000\000\200lZ4@\367\377\377\037@U6@\003\000\000\000c<5@\000\000\000`\270Z4@\367\377\377\337\230\2465@\365\377\377?~\2561@\002\000\000\200\321\0205@\003\000\000\340\341\2035@\364\377\377\177\005!5@\005\000\000\200$\2672@\007\000\000@\365\3613@\366\377\377\277G\2674@\003\000\000\240\232f4@\t\000\000\200o\3004@\371\377\377?\341X5@\371\377\377\377iT5@\370\377\377\237I\2506@\007\000\000`F\3063@\376\377\377\177N\0272@\363\377\377\037\215X2@\377\377\377\337\316]2@\363\377\377\037}\3413@\014\000\000\200\372\3771@\365\377\377\377\376S2@\366\377\377_wL4@\r\000\000\340\212\3344@\001\000\000 \271h5@\376\377\377\277=82@\t\000\000 \027\3311@\003\000\000\240\312\3033@\000\000\000`\030=2@\365\377\377\377n*5@\t\000\000\200Ws5@\365\377\377\237V\0252@\364\377\377\337\265U4@\014\000\000 *%1@\013\000\000`\251@1@\001\000\000\300\200\t2@\002\000\000@\342\2234@\363\377\377\037\215\3655@\367\377\377\037\250?3@\376\377\377\037\236\2303@\007\000\000\240]\3353@\005\000\000 lp0@\371\377\377_Zw6@\005\000\000\300S%4@\003\000\000@\"\2205@\377\377\377\337v\3015@\375\377\377\0376\2275@\001\000\000\300\310\3525@\013\000\000\300\271\3255@\366\377\377_\337K5@\007\000\000\300f$2@\002\000\000\200y\0175@\002\000\000\340\34104@\r\000\000@\353\2505@\367\377\377\177\360>5@\013\000\000`\tJ5@\363\377\377\037%\0276@\002\000\000\340\241\0215@\373\377\377\337;\2250@\000\000\000\240g\0212@\373\377\377\237\304\2024@\014\000\000\200b\3414@\371\377\377\377!\2315@\t\000\000\200\007\3755@\t\000\000\200\007\3755@\377\377\377?\347W2@\370\377\377\237\241\3045@\t\000\000\240\000\2226@\375\377\377\377\364\3074@\375\377\377\377\364\3074@\003\000\000\2001\2325@\377\377\377\337^\0052@\366\377\377_\'D2@\364\377\377\177\275\3024@\365\377\377\237^=5@\373\377\377?$\0042@\374\377\377\237D+1@\375\377\377\037\216\3605@\373\377\377\177\023p4@\374\377\377\337\243\2675@\002\000\000@jh4@\t\000\000\200\357O4@\001\000\000\300@\3631@\003\000\000\3409{5@\374\377\377\337\213\2505@\373\377\377\237T(5@\003\000\000@z#6@\003\000\000\340\231\2245@\003\000\000\340\231\2245@\375\377\377\037\026)6@\005\000\000`#a5@\364\377\377\177\305\2535@\010\000\000`f\2006@\366\377\377\277g?2@\013\000\000\300\021\3711@\373\377\377\337\033\2564@\373\377\377\337\033\2564@\t\000\000 _`5@\005\000\000 Do4@\365\377\377?\276d4@\370\377\377\337\320\2001@\013\000\000\000\351\2172@\373\377\377?\034E4@\371\377\377?\311\2624@\375\377\377\277\235\3235@\005\000\000 \20404@\t\000\000 \33742@\t\000\000@(\2345@\374\377\377?$\2535@\363\377\377_L\3624@\377\377\377?\237.5@\371\377\377_\022\0322@\367\377\377\3378\2354@\014\000\000 j 4@\373\377\377?\274p4@\002\000\000\200\341\3353@\375\377\377\377\264\2262@\376\377\377\177f\2132@\365\377\377?\02622@\r\000\000@\203\0145@\371\377\377\377i/5@\005\000\000\340\264G0@\013\000\000\000\371\3623@\371\377\377\277\002<6@\365\377\377\237v85@\000\000\000\000H\0275@\375\377\377\377\264\2463@\377\377\377?\317B1@\000\000\000\240\207\3221@\371\377\377_\372\2354@\366\377\377\277\277\2144@\373\377\377\237\\34@\376\377\377\037N\t4@\373\377\377?\264l4@\371\377\377\377\321[6@\377\377\377?\'\2233@\363\377\377\277\334\2563@\365\377\377\377\006k2@\373\377\377?Lo5@\003\000\000\000\323\0266@\003\000\000\000\323\0266@\375\377\377\037\226\0326@\003\000\000\000K72@\002\000\000\200\311\2232@\002\000\000\200\241\0014@\003\000\000\000\013\3504@\375\377\377\037v\3765@\000\000\000`\210-4@\375\377\377_u\2745@\375\377\377\377\324w5@\005\000\000\200$\2635@\r\000\000\240\233z2@\014\000\000\200\032\0252@\366\377\377\277\007T2@\373\377\377\037\27346@\005\000\000\300\013\3404@\016\000\000\000\244o5@\000\000\000`\300Z5@\n\000\000\240\230;3@\016\000\000\000\024I1@\014\000\000 B\2263@\373\377\377?\204\2434@\000\000\000\240\367\3334@\366\377\377_\377\2602@\002\000\000\340\251\2144@\365\377\377\377\246\3545@\t\000\000\200?j4@\000\000\000\240O=6@\r\000\000\340\232,2@\014\000\000\200:\3621@\364\377\377\177\275\3403@\t\000\000 \007\0354@\n\000\000\2408T4@\n\000\000\2408T4@\373\377\377\237,x5@\005\000\000\200\234b6@\000\000\000\240_\3674@\365\377\377\377\006@1@\367\377\377_\247\3175@\003\000\000@\022\2715@\013\000\000\300\371\2721@\371\377\377_B\3635@\003\000\000\240\002{5@\007\000\000\240-\2366@\366\377\377_\217S5@\367\377\377\337\350<4@\t\000\000\200\367m4@\005\000\000\200\224\3111@\376\377\377\177\236\3463@\005\000\000\300\343\0344@\000\000\000\240W\2204@\007\000\000@=\0354@\377\377\377\337\236c2@\376\377\377\177f\2704@\000\000\000\240o\0224@\003\000\000\240\312\3544@\371\377\377\377\201f5@\t\000\000\340\177\2263@\375\377\377\377\324\2662@\016\000\000\000\034\2561@\377\377\377?\337\0134@\377\377\377?\337\0134@\365\377\377?\376\2251@\371\377\377\277J[5@\376\377\377\277mV4@\364\377\377\337\245\3151@\374\377\377\337C\3455@\374\377\377\337C\3455@\007\000\000`6\3033@\003\000\000@\302\3706@\375\377\377_=\3351@\375\377\377\377ta2@\n\000\000\240\220P4@\t\000\000 \'%4@\371\377\377\277\212!4@\371\377\377\2371|2@\363\377\377_|J5@\007\000\000`\206a5@\005\000\000\200$\3642@\000\000\000`\000\2624@\013\000\000\000)\2527@\007\000\000\000\226?2@\364\377\377\177%r4@\010\000\000\300\226\3525@\014\000\000\200b,4@\375\377\377\377\314c5@\014\000\000 \"94@\373\377\377\177\003\2703@\007\000\000`\006k1@\002\000\000@\"<2@\371\377\377_\"m5@\002\000\000\200\241\0164@\366\377\377_\207\0144@\t\000\000\340\237\2725@\r\000\000@\373\3223@\016\000\000\000d 5@\007\000\000`\376y2@\371\377\377\377\371\2274@\377\377\377\337F\2746@\375\377\377\277=\r6@\007\000\000\240\375-5@\367\377\377\177H\'4@\363\377\377_\304!5@\373\377\377\177kR3@\375\377\377\377\344/4@\363\377\377\037UF5@\363\377\377\037UF5@\r\000\000@\363\3025@\r\000\000@\363\3025@\002\000\000@\352\3723@\000\000\000\240\307z5@\t\000\000 \337\3711@\373\377\377\177\263\2154@\371\377\377_\302:2@\005\000\000\200\034C4@\363\377\377\277\\\0106@\364\377\377\1775\3744@\013\000\000\000i?2@\n\000\000@\000O5@\005\000\000\200\274\2305@\367\377\377\337\34065@\t\000\000\340_\3265@\013\000\000\300995@\r\000\000@\263\3275@\371\377\377_\302a4@\367\377\377\177@\2655@\371\377\377_\002\3014@\371\377\377\277\352\3425@\365\377\377\377\256-4@\005\000\000\200\274>2@\366\377\377\277\247\2250@\371\377\377_\352\3144@\t\000\000\340\217t5@\005\000\000\3404\2474@\364\377\377\177M\n5@\376\377\377\277]s2@\007\000\000\000^P2@\r\000\000\240\263\2074@\017\000\000\000\324\2325@\364\377\377\177-|5@\013\000\000`q\2034@\367\377\377\177\330\0256@\373\377\377\177\013\2325@\365\377\377\377\23682@\371\377\377\237\201a4@\t\000\000\200/`4@\007\000\000\240\325\2545@\373\377\377\2374\0002@\367\377\377\037\360:5@\013\000\000\000!05@\000\000\000\240\017\2212@\003\000\000\000S!6@\t\000\000\340o\2666@\r\000\000\240ki3@\013\000\000\000\t\2273@\371\377\377\277\302r5@\007\000\000@\rB2@\000\000\000\000\240l1@\365\377\377\237\306\3465@\007\000\000\000\036b5@\374\377\377\237\244\3670@\377\377\377\337\376A6@\373\377\377\337\203\3404@\005\000\000 4\3134@\376\377\377\177\316\3514@\365\377\377\377>\2505@\017\000\000\000\354\2415@\007\000\000@\355\3744@\t\000\000\200\337[4@\013\000\000\000y\0342@\007\000\000\000602@\363\377\377\037\205\2051@\005\000\000\340LA5@\377\377\377\337\006+5@\013\000\000`\001\3235@\371\377\377\377\221\3115@\014\000\000 \322C5@\364\377\377\177\355\0242@\005\000\000\200\264\3104@\365\377\377\237&(4@\373\377\377\177{\3751@\014\000\000\200\332f1@\000\000\000\000\260\2176@\014\000\000 Z\2635@\010\000\000 gX1@\371\377\377\377\211i4@\013\000\000`\201\2661@\005\000\000\340l\2655@\r\000\000\340\002\3774@\365\377\377\2376w1@\373\377\377\337\303\3741@\367\377\377\337x\3133@\002\000\000\200\341T2@\002\000\000@z\2401@\000\000\000\000\200\2634@\363\377\377_|^1@\t\000\000\240\300\3565@\375\377\377\277\035\0046@\377\377\377\337\276\2752@\000\000\000\000\310\3164@\005\000\000 \304\2462@\013\000\000`I\2254@\370\377\377?\261[6@\000\000\000\000\210\0052@\005\000\000\300\003\3661@\t\000\000\3407,1@\t\000\000\200\177#4@\365\377\377\377\276k2@\363\377\377\277\034\3525@\367\377\377\337\220\2014@\375\377\377\177\356\2235@\367\377\377\177\200\2033@\005\000\000\300\353\2112@\374\377\377?\234\3035@\374\377\377?\234\3035@\364\377\377\337=\2275@\363\377\377\037]\"4@\371\377\377_:g2@\007\000\000`\276|4@\373\377\377\337{\0062@\377\377\377\177\336S1@\364\377\377\337\275g2@\014\000\000\200\202\2324@\373\377\377\337\203\0270@\376\377\377\177\336\0342@\007\000\000\240ee1@\366\377\377_\347\0230@\005\000\000\300\363\3311@\371\377\377?a\3441@\t\000\000 \357\0352@\376\377\377\037\216\2304@\004\000\000\300{\2205@\002\000\000\200\33125@\375\377\377\277\355\2765@\377\377\377?\27772@\005\000\000\300\353\2012@\003\000\000\000\343\3442@\007\000\000\240-E5@\373\377\377\177\253\2154@\t\000\000\240H\2565@\007\000\000\240]\2755@\t\000\000 715@\003\000\000@\362_6@\003\000\000\000\273\3005@\007\000\000`.\0245@\007\000\000`.\0245@\370\377\377\337\310S1@\014\000\000\200\362\3301@\r\000\000\340\332\3741@\374\377\377\337c\0276@\000\000\000\240G\2733@\365\377\377\377N\0315@\003\000\000\240\372\2545@\002\000\000\340a#2@\n\000\000\240\230K2@\001\000\000\3008\2564@\000\000\000`P\3105@\t\000\000\340\267\2715@\376\377\377\037F\2071@\003\000\000\200\371\2536@\005\000\000\200$I5@\004\000\000\3003R6@\363\377\377\037Uo4@\007\000\000\300\346\3124@\t\000\000@\370\'7@\007\000\000\000\036\2302@\t\000\000 wN4@\371\377\377_\302\3435@\373\377\377?\354\3523@\t\000\000\340g\n4@\363\377\377\037=\3102@\003\000\000\000k\1775@\005\000\000 Ly3@\010\000\000\300\276=6@\010\000\000\300\276=6@\373\377\377\037s\0374@\t\000\000\200\267E2@\t\000\000\340w\2655@\373\377\377\237\374\3521@\005\000\000\300K\0344@\376\377\377\037\276\2022@\365\377\377\377\326\0334@\013\000\000\300\341s2@\005\000\000 \23414@\016\000\000\000\304*2@\002\000\000@\372K2@\t\000\000\200/\2424@\002\000\000@\352\3504@\373\377\377\177\003\1773@\375\377\377\377t\2435@\002\000\000\340\221\3070@\371\377\377\377Is2@\013\000\000\300Y\2401@\371\377\377\277\312\0132@\366\377\377\277/35@\367\377\377\277\317\2065@\r\000\000@K\2542@\000\000\000\240\327W5@\000\000\000\240\327W5@\007\000\000\240\005\3633@\t\000\000\340\247J4@\374\377\377\337+\2035@\375\377\377\377\214F5@\376\377\377\037f\3532@\001\000\000 \201*1@\371\377\377\277\"\0206@\363\377\377\037MV5@\007\000\000\240\305O4@\377\377\377\337\366 4@\007\000\000\2405N2@\367\377\377\337 N6@\365\377\377\3776\3111@\371\377\377\237\221Y5@\002\000\000@\342\0045@\371\377\377\277r42@\000\000\000\000\310+1@\373\377\377\237\224\2751@\377\377\377?gs5@\000\000\000\240g\3043@\375\377\377\377\024\2305@\373\377\377\237\354N5@\007\000\000@\315\2514@\r\000\000\340\242l5@\014\000\000\200\222G4@\005\000\000\200$54@\002\000\000@\"\0222@\005\000\000 d\r4@\005\000\000 t\3734@\003\000\000\240\272C5@\001\000\000 A\2405@\373\377\377\237\334\0075@\373\377\377\237\334\0075@\365\377\377?v\3535@\013\000\000\300\361\0362@\373\377\377\337\033\2524@\001\000\000 Al2@\t\000\000\340\377\3635@\r\000\000\340b\3405@\007\000\000\000n}5@\003\000\000\200a\2425@\014\000\000 \232+5@\363\377\377_\324\2634@\007\000\000@\255\3255@\r\000\000@K\2134@\r\000\000@#^4@\375\377\377\037F\2445@\375\377\377\377\314\0236@\007\000\000\240\355\3145@\007\000\000\240\355\3145@\376\377\377\037vx4@\371\377\377\277r\3615@\003\000\000@\262\3255@\365\377\377?\226\0314@\365\377\377?\226\0314@\r\000\000@\013\3065@\007\000\000\300^f4@\007\000\000\000\376\2304@\376\377\377\037\226r5@\377\377\377\337v76@\375\377\377_\345+2@\377\377\377?\357H4@\001\000\000\300\010\3761@\005\000\000 \034\0212@\007\000\000@\035Y2@\373\377\377?\314H2@\002\000\000\200ie2@\002\000\000@\252\0265@\001\000\000\300\370\2625@\r\000\000\340\"\0101@\363\377\377\037\275o4@\374\377\377\337c56@\376\377\377\037V\3224@\014\000\000 *\3405@\000\000\000`\340\0262@\365\377\377\377\206\3524@\005\000\000`\333$2@\373\377\377\177C\3012@\371\377\377\377\311\2012@\371\377\377\377\311\2012@\000\000\000`\010\3125@\000\000\000`\010\3125@\007\000\000\000\366\2025@\001\000\000\300H56@\367\377\377\037 95@\373\377\377\037cJ4@\001\000\000\300\010F5@\014\000\000 \342G4@\004\000\000 \314E6@\375\377\377\377\\\2525@\365\377\377\237\356\0257@\t\000\000\340\037\3605@\007\000\000\000\316`3@\003\000\000\000+\0134@\t\000\000\200\327\2445@\t\000\000\200\327\2445@\002\000\000\340\201\0015@\376\377\377\1776x4@\r\000\000\340\"\3015@\373\377\377\037\263]4@\t\000\000 \217i5@\n\000\000@\300q5@\t\000\000\200\247\3744@\007\000\000\240\005\3645@\013\000\000\300\371:4@\t\000\000\340\337\2555@\377\377\377\337>\2365@\007\000\000\240\275\3345@\t\000\000\200\217\2405@\t\000\000\200\217\2405@\007\000\000\240u\3054@\377\377\377\337\266<1@\371\377\377?Y!4@\375\377\377_Ee5@\013\000\000\300q\2002@\007\000\000\0006\3130@\t\000\000 o;2@\367\377\377\337h!2@\365\377\377?\306*2@\014\000\000\200\322\2373@\007\000\000\300\206k3@\363\377\377\277\314\2515@\366\377\377_\237\0332@\373\377\377\337\233\3464@\377\377\377?\007\3431@\003\000\000\240j=5@\371\377\377\377\221-2@\376\377\377\277\355\3313@\364\377\377\337\035\r2@\365\377\377\377\356\0162@\007\000\000@\365@5@\375\377\377\177\016\0356@\n\000\000\240([5@\377\377\377\337\226\3571@\n\000\000@\230\\3@\376\377\377\277\325j4@\363\377\377_\214\0345@\365\377\377\237vy1@\t\000\000 \257\3703@\363\377\377\277\31463@\003\000\000\000S=2@\013\000\000`\t%4@\t\000\000\340\367\2305@\001\000\000\300\370\3474@\370\377\377\237a\0276@\014\000\000 \nW4@\013\000\000\300\301A4@\t\000\000\340\277\3633@\373\377\377\237\344 4@\365\377\377\237\236A5@\005\000\000\340\214\2763@\013\000\000\000\231\3105@\r\000\000@K\3743@\r\000\000@#14@\001\000\000\300\360\2722@\t\000\000\200\177{5@\377\377\377?\257\2633@\367\377\377\337\210\2632@\363\377\377_l@2@\364\377\377\337\305\3763@\363\377\377_\26452@\007\000\000`^b5@\376\377\377\037\016\0224@\371\377\377?\231\0264@\r\000\000@\333\2012@\005\000\000\300[@4@\371\377\377\377\371.2@\371\377\377\377\371.2@\n\000\000@P\0322@\014\000\000\200\262\2535@\367\377\377\337H\2145@\007\000\000@\345\3673@\367\377\377_\367\3035@\363\377\377\277\224G5@\013\000\000\000\251\2614@\371\377\377\237\221\3421@\000\000\000`8\2471@\376\377\377\177\35644@\014\000\000 z\2714@\014\000\000 z\2714@\007\000\000\240\22596@\007\000\000@}>6@\003\000\000\240BO4@\363\377\377\277\034\\5@\013\000\000\000y\2455@\001\000\000\300\25012@\363\377\377\277\314\3101@\363\377\377\277\314\3101@\371\377\377\377Y\3144@\373\377\377\177\353\2543@\373\377\377\177\353\2543@\016\000\000\000\27474@\016\000\000\000\27474@\000\000\000\000\310\3211@\367\377\377\037\020\2025@\000\000\000\000\250B4@\002\000\000@\272\2102@\007\000\000\300^\0232@\367\377\377\037032@\367\377\377\037032@\375\377\377_e\3423@\002\000\000@\272\0005@\002\000\000@\272\0005@\373\377\377\177#L2@\377\377\377?\377\0024@\r\000\000\340\372v0@\007\000\000\240U\0364@\363\377\377\037\255\3625@\371\377\377\237\331O2@\366\377\377_\317\3312@\373\377\377?\324\3034@\003\000\000\200!\233-@\371\377\377\377y\3111@\r\000\000@\303@1@\007\000\000\300nO4@\367\377\377\277O\3255@\367\377\377\337\000\2424@\r\000\000\240\013d6@\376\377\377\177^\3543@\003\000\000\340I.6@\371\377\377\277\212\3675@\007\000\000\300\206\2302@\007\000\000\300\206\2302@\000\000\000`X\3524@\367\377\377\037H}1@\r\000\000@\273\3331@\364\377\377\177\355\0004@\365\377\377\377v\3544@\005\000\000\200\334[1@\t\000\000\200?)4@\003\000\000@\332\2035@\t\000\000\340\027\2202@\363\377\377_l\2711@\013\000\000\000Y\2504@\373\377\377\337\273Y3@\013\000\000`\371\2643@\013\000\000`I\3375@\005\000\000\300\253\0375@\r\000\000@c\2571@\363\377\377\277D\'2@\371\377\377\237Yd2@\373\377\377\177+%3@\365\377\377?\346\3254@\t\000\000\200\037\3534@\t\000\000\200\037\3534@\371\377\377\277\n\3443@\010\000\000\300\266\2565@\010\000\000\300\266\2565@\007\000\000\300\236\0205@\365\377\377\377>\2105@\365\377\377\377\276\3521@\016\000\000\000D\3250@\007\000\000@E\2375@\002\000\000@\322\2214@\007\000\000\300\226\0332@\005\000\000 $\3633@\000\000\000`\330]4@\377\377\377?\337\2612@\365\377\377?V\2575@\005\000\000`#\2022@\007\000\000`\006(5@\373\377\377\337C~4@\005\000\000 \354\3602@\363\377\377_\254\2001@\363\377\377\277\004\3473@\n\000\000\240(E4@\005\000\000`\353n2@\013\000\000\000i\3024@\n\000\000\240`74@\005\000\000\200,A6@\364\377\377\177U\2323@\371\377\377\377\311\3733@\t\000\000 W\3103@\005\000\000`\233G4@\013\000\000`\031=2@\001\000\000\200\301Z1@\001\000\000\200\301Z1@\363\377\377\037\265\3045@\363\377\377\037\265\3045@\001\000\000\300H@4@\001\000\000\300H@4@\r\000\000\340\222\2014@\364\377\377\337\365\3774@\007\000\000@\245\2705@\001\000\000\300P/6@\r\000\000\240\373\\4@\365\377\377\377nm6@\375\377\377\037\206\2775@\373\377\377\237\\>5@\364\377\377\337\365n4@\371\377\377\237\271\0145@\023\000\000 \250X/@\007\000\000\240=\0355@\371\377\377_:\3015@\r\000\000\2403G3@\367\377\377\037\330\2233@\007\000\000\240\205\2145@\007\000\000\240\205\2145@\003\000\000@\002\0326@\363\377\377\277\374J2@\377\377\377\337\366+5@\367\377\377\177\350\3564@\010\000\000\300\376\3535@\367\377\377\177\320\2575@\005\000\000\340\234R2@\013\000\000\000\321\0341@\363\377\377_\344\3153@\375\377\377\377\034\0274@\375\377\377\277=C0@\r\000\000@\263\0136@\373\377\377\037#;4@\373\377\377\177{\3063@\003\000\000\240\312\3324@\366\377\377_\017\t2@\371\377\377\377\341\3773@\013\000\000`1/2@\376\377\377\037\206\\4@\t\000\000\240\210\2766@\000\000\000\000\330P3@\000\000\000\000\330P3@\371\377\377\377Q\3304@\373\377\377\237lF2@\t\000\000 \017k2@\000\000\000\240?\3361@\013\000\000\000\371\2714@\373\377\377\037\263#3@\367\377\377\177\270\3245@\365\377\377\237n\0015@\365\377\377\377\356\3301@\371\377\377\277\332\2044@\000\000\000\2407\2315@\t\000\000@\320G6@\364\377\377\177\235\2534@\t\000\000\340g04@\n\000\000\240X\0275@\005\000\000\340\344\3451@\005\000\000\300\31372@\002\000\000\340\301\r2@\007\000\000\300\026\3421@\003\000\000\000#\2012@\n\000\000\240\370\2122@\363\377\377\277\354\2425@\013\000\000\000\251\"5@\002\000\000\340\201\3503@\007\000\000\000\206,2@\003\000\000\240\202I0@\016\000\000\000dI4@\370\377\377?\201\2115@\000\000\000\000\230\2155@\r\000\000\240\023^4@\372\377\377\277\322W1@\366\377\377\277\307\0332@\371\377\377\237Yo2@\366\377\377\277o@3@\364\377\377\177\335a5@\373\377\377\037K\3455@\003\000\000\240\032\0234@\375\377\377\377d\2371@\376\377\377\177\276Y2@\t\000\000 g\2644@\364\377\377\337-\0331@\000\000\000\240/\2602@\373\377\377\337\013\3122@\013\000\000`\021\3743@\367\377\377\037\320\0044@\r\000\000\240\213}5@\014\000\000 \032B5@\t\000\000\340\327\2475@\t\000\000\340\327\2475@\007\000\000\000\366\2341@\373\377\377\177k\2411@\007\000\000\240u\3361@\373\377\377\037\003\2616@\014\000\000\200\032\0215@\013\000\000`\361\2764@\363\377\377\037Md0@\367\377\377\177H\2614@\005\000\000\340t\0365@\375\377\377\377D\3721@\375\377\377_5\0072@\r\000\000\340\222\2261@\365\377\377?\236K2@\376\377\377\177\236r2@\375\377\377\377\244\2041@\005\000\000`\363\3004@\n\000\000@\010=5@\r\000\000\240#\0346@\t\000\000 \327y5@\007\000\000@\375\3644@\373\377\377?\264Y2@\373\377\377?\264Y2@\366\377\377_\347\2524@\002\000\000@:M5@\375\377\377_\265\3634@\005\000\000`\363R5@\377\377\377\337F\0261@\377\377\377?\307\2601@\377\377\377?\307\2601@\365\377\377\237n\0205@\013\000\000`a\2535@\n\000\000\240\200I3@\371\377\377_\202j3@\365\377\377?\236[4@\365\377\377\377NY6@\002\000\000\340\221>5@\374\377\377\337\303z5@\000\000\000\000p\3145@\370\377\377\237\301\3165@\001\000\000\300\010\2312@\000\000\000\000\000>2@\373\377\377\1773\3510@\371\377\377?y42@\000\000\000`P05@\004\000\000`\003\0136@\r\000\000\240\263\3402@\363\377\377_\22422@\n\000\000@h\0045@\r\000\000\240\003\2035@\364\377\377\177]t5@\371\377\377\377\351\3354@\377\377\377\337\306K4@\377\377\377?\177\2333@\005\000\000\2004\2055@\371\377\377_\02242@\377\377\377\337.31@\t\000\000\340\027$2@\375\377\377_m\3162@\364\377\377\177\365B2@\373\377\377?\204m5@\373\377\377?l\3661@\365\377\377\377\036\3430@\013\000\000\300I\3705@\007\000\000\300n\3754@\007\000\000\300n\3754@\367\377\377\037p\0022@\016\000\000\000\314\3320@\t\000\000 ?]2@\r\000\000\340R\2434@\010\000\000\300\356M6@\003\000\000\000\303\3026@\371\377\377_\362\'5@\365\377\377\237f\2545@\367\377\377\037\000Y5@\003\000\000\000#\3674@\003\000\000\000#\3674@\005\000\000\300\303\3443@\002\000\000\340\241y4@\007\000\000\300\246\3414@\t\000\000\340\217\3545@\001\000\000 Ae5@\377\377\377?\347\\6@\366\377\377\277\367X1@\017\000\000\000\344\3135@\377\377\377?\027\0356@\367\377\377\037P\2414@\002\000\000\200av5@\007\000\000`\256\0062@\007\000\000\2405\3571@\374\377\377\237\324=1@\014\000\000\200\212\2521@\363\377\377\037\225\3661@\001\000\000`p\\1@\364\377\377\337EM5@\001\000\000 \211\3354@\374\377\377\237\334\2525@\367\377\377\337h~5@\374\377\377?|\2516@\374\377\377?|\2516@\365\377\377?Va5@\005\000\000`;Y4@\005\000\000`;Y4@\003\000\000\240Z\2305@\373\377\377\177\273e4@\007\000\000`6\3014@\377\377\377\337&\2175@\377\377\377\337&\2175@\014\000\000 \362g5@\000\000\000\000\000\2464@\364\377\377\337\235\0142@\363\377\377\277T\2514@\375\377\377\377<\3005@\005\000\000 lT5@\005\000\000 lT5@\014\000\000\200\03232@\373\377\377?\034\2134@\373\377\377?\034\2134@\371\377\377_\372\2611@\002\000\000@\232[2@\365\377\377\237^H2@\371\377\377\377\03162@\007\000\000@m\3321@\376\377\377\177\206\2274@\010\000\000`\006\2245@\376\377\377\177vA5@\005\000\000 l!5@\375\377\377_\255\2362@\003\000\000\240b!2@\r\000\000\340:\2125@\r\000\000\240\313i2@\t\000\000@\370\3455@\005\000\000\200\374\0355@\t\000\000 \307\3025@\365\377\377\377\226\3415@\003\000\000\200\261\2405@\007\000\000\300\356i2@\365\377\377\377V\2131@\376\377\377\177\22642@\371\377\377\237a/2@\001\000\000 \031\3505@\005\000\000\200\234\2754@\013\000\000\000i\3713@\n\000\000@\250l1@\016\000\000\000\224[4@\016\000\000\000\224[4@\373\377\377\237\024e5@\017\000\000\000D\2416@\371\377\377?\351\0072@\003\000\000\240\352\2730@\003\000\000\240z\3174@\000\000\000\240\207\2113@\373\377\377\037#X4@\364\377\377\177\255\3371@\r\000\000@3K5@\375\377\377\377\\Z4@\t\000\000 \267D4@\373\377\377\237\214i2@\001\000\000 A\2734@\364\377\377\177\005\0032@\366\377\377_O\2074@\371\377\377\277\342\2525@\371\377\377\277\032Z5@\363\377\377_\354\3335@\363\377\377_\354\3335@\r\000\000\240\253\0015@\364\377\377\337\375U0@\003\000\000@J\2677@\n\000\000\240p\3723@\371\377\377\377\351\0144@\t\000\000@0Q6@\005\000\000 ,*1@\366\377\377\277\017\3214@\363\377\377_D32@\371\377\377_\262\3255@\t\000\000\340\347\3074@\373\377\377\337\203\0325@\371\377\377\377\261\2355@\r\000\000@\303\2314@\000\000\000\240Wh5@\000\000\000\240Wh5@\371\377\377?\001_2@\365\377\377?F\3331@\t\000\000 \247 6@\366\377\377\2777\0345@\371\377\377\377\311\3501@\007\000\000\240E\3204@\003\000\000@b\2436@\373\377\377\0373\3654@\373\377\377\0373\3654@\377\377\377\337\276\2305@\013\000\000\300\271\2465@\373\377\377\177\033.2@\375\377\377\177\306l6@\364\377\377\177\025W5@\364\377\377\177\025W5@\002\000\000\200\301m4@\000\000\000`\210\2165@\000\000\000`\210\2165@\373\377\377?T[5@\003\000\000\2402\3144@\373\377\377\237DO4@\371\377\377\377I\2672@\367\377\377\037\200l1@\373\377\377\177k\0016@\375\377\377\3774n6@\002\000\000\200\221\3634@\371\377\377\277\272\2645@\007\000\000\240uY4@\007\000\000\240uY4@\005\000\000\200Ln3@\371\377\377_\302\2564@\371\377\377\277\222\2024@\363\377\377_\254:5@\000\000\000\240\037\n5@\000\000\000\240\037\n5@\376\377\377\277\225\0044@\375\377\377\277\305\3135@\004\000\000\300\343\3275@\371\377\377?\311\0264@\371\377\377_:\2506@\375\377\377_\345\2744@\371\377\377\377\301#4@\375\377\377\377\034\2014@\005\000\000 d\0214@\001\000\000\300h\2604@\t\000\000\240\240\2735@\377\377\377\337\366)5@\003\000\000\240\312S4@\000\000\000\000\33061@\014\000\000\200B!1@\014\000\000 \"G6@\t\000\000 \347;5@\377\377\377??\0245@\010\000\000\300\006\1776@\016\000\000\000\364D5@\013\000\000\300\201t5@\367\377\377\337\310\2744@\t\000\000\340?\2135@\r\000\000\340:\2214@\r\000\000\3402\2025@\367\377\377\337@\3621@\365\377\377\237\226\0162@\t\000\000\340\277\'5@\373\377\377\037\363\'5@\373\377\377\037\363\'5@\007\000\000\300\356_5@\367\377\377\337\240\2275@\367\377\377\337\240\2275@\007\000\000\000\306a5@\371\377\377\377\221/2@\001\000\000 \251L4@\001\000\000 \251L4@\375\377\377\377\324\0273@\365\377\377\237VN2@\003\000\000\240\032\3372@\005\000\000\340d\3362@\005\000\000\340d\3362@\007\000\000`~\2542@\003\000\000\340q/6@\367\377\377_\327\3776@\004\000\000 \364T6@\t\000\000\200\'\2144@\007\000\000\240m\0255@\371\377\377?\261\\5@\371\377\377?\261\\5@\371\377\377\377\231M4@\002\000\000\200\001B5@\013\000\000\300Y?6@\373\377\377\177\003l5@\005\000\000\340\344\0244@\007\000\000\300\336\'5@\007\000\000\000\276%6@\363\377\377_d(6@\374\377\377\337c\3635@\007\000\000\000v65@\367\377\377\177\270\3513@\367\377\377\177\270\3513@\371\377\377\377\351?4@\001\000\000\300\360\3314@\370\377\377\237\351\1775@\013\000\000`\tL4@\365\377\377\237~@4@\365\377\377\237~@4@\t\000\000\340\317*2@\367\377\377\0378\2535@\013\000\000\300q\2345@\367\377\377\037\010#5@\r\000\000@s^5@\375\377\377_\235\0025@\005\000\000`\243T2@\r\000\000\240\373s5@\366\377\377_\177@2@\r\000\000@Sr6@\014\000\000 *\3675@\r\000\000\240\243W4@\000\000\000\000P\3434@\376\377\377\177>\0175@\364\377\377\3375\3331@\371\377\377\377Y\3733@\007\000\000\000~\3055@\374\377\377\237\234M1@\371\377\377\277\032d2@\005\000\000`+v2@\000\000\000\240\027D2@\367\377\377\177\250\2536@\007\000\000`\226K4@\364\377\377\337\215\0312@\005\000\000`;\2152@\371\377\377\377y\2561@\365\377\377?\306T5@\007\000\000@u\3543@\007\000\000@u\3543@\363\377\377\277tB5@\363\377\377\037M\3435@\363\377\377\277\204f5@\377\377\377\337\316\2015@\003\000\000\240\202\3045@\004\000\000\300c\2705@\364\377\377\177\275C5@\001\000\000\300(\0006@\000\000\000\240o,5@\365\377\377\237F\3141@\013\000\000\000Y\3775@\375\377\377_u\2615@\364\377\377\177\025\2665@\n\000\000@x\3034@\r\000\000\240[#6@\367\377\377\037\230d3@\371\377\377\377\211u5@\016\000\000\000\244\3134@\363\377\377\277\234\3642@\363\377\377\277\234\3642@\013\000\000\000I\3401@\r\000\000\240[F2@\001\000\000\300\020\3373@\000\000\000\000P\3025@\371\377\377\377q\2054@\005\000\000\2004Y4@\r\000\000\340\002\2703@\366\377\377\277\207\3524@\373\377\377\237L\3462@\367\377\377\037\300\2354@\007\000\000\000\256\3135@\373\377\377\337+\0352@\365\377\377\3776\3774@\002\000\000\340!f4@\363\377\377\037}\2654@\366\377\377_\027w4@\373\377\377\337#%5@\363\377\377\037\r&2@\370\377\377?Y26@\370\377\377?Y26@\364\377\377\177=N2@\364\377\377\177=N2@\363\377\377\277,P5@\007\000\000\300>@5@\002\000\000\340\301t1@\365\377\377\237\346\2724@\000\000\000\240\227\3551@\013\000\000\0009\2164@\001\000\000 )b4@\001\000\000 )b4@\370\377\377\237\231\2635@\370\377\377\237\231\2635@\013\000\000\300a\0056@\371\377\377\277205@\013\000\000\000y\2305@\365\377\377?\216+5@\365\377\377?\216+5@\014\000\000 \342\3055@\375\377\377\177\316\2755@\364\377\377\337\305K4@\016\000\000\000T\2114@\371\377\377?\341k5@\367\377\377\337\240\2641@\007\000\000`Vy5@\001\000\000\300 ;5@\000\000\000`\020\'4@\000\000\000`\020\'4@\007\000\000\000n]7@\367\377\377\037\320\2354@\367\377\377\037\320\2354@\377\377\377??\3674@\005\000\000\340D\3754@\005\000\000\340D\3754@\004\000\000\300\343\3715@\005\000\000\200\214J5@\001\000\000\200\301\2171@\t\000\000\200\367_4@\000\000\000`\250\2314@\363\377\377\037\005\2414@\t\000\000\340oD0@\001\000\000`HH1@\010\000\000`\266\2445@\005\000\000 \324\0334@\377\377\377?\367\0372@\005\000\000\200$g1@\366\377\377_w\2224@\000\000\000\240\307\3046@\002\000\000\340i\3102@\001\000\000\300\200\3274@\005\000\000`\273E5@\367\377\377\037\370K5@\003\000\000\000\013<5@\003\000\000\000\013<5@\363\377\377\037\335\3521@\365\377\377\377f\3721@\373\377\377\037\333\"2@\013\000\000`\001\0032@\371\377\377\237\321C2@\014\000\000\200\262\0175@\001\000\000 \001a5@\000\000\000`\360/5@\014\000\000 \002\2124@\014\000\000 \002\2124@\002\000\000\200\tl4@\000\000\000`\330@2@\373\377\377?\324\'2@\013\000\000\000\211]5@\375\377\377\037\026&6@\367\377\377\1770Y5@\373\377\377\177\303#4@\371\377\377\237\351w4@\373\377\377\177[\0356@\371\377\377_Z{5@\363\377\377\037\365:5@\t\000\000 \357f5@\013\000\000\300\351K2@\014\000\000\200\212%2@\371\377\377_2\3761@\363\377\377_T\2032@\007\000\000\300v\0263@\367\377\377\337\230\2737@\364\377\377\177\345\2475@\003\000\000\240*\2462@\366\377\377\277\25762@\364\377\377\337\235\2704@\r\000\000@\303\r2@\000\000\000`\37044@\005\000\000\3404R3@\r\000\000\240\313\2302@\371\377\377_\372\3651@\371\377\377\277\322c2@\006\000\000@\355v1@\005\000\000\200\364\2705@\002\000\000@\002g2@\377\377\377\337\216\3764@\371\377\377\277\322U2@\364\377\377\177\245\3232@\007\000\000@=Y5@\363\377\377_\274\3215@\005\000\000\340\324\2704@\375\377\377\377\02472@\365\377\377\377^\2240@\003\000\000\000\313\2265@\375\377\377_\035\3524@\007\000\000\000\276\2072@\371\377\377\277\312\2441@\003\000\000@r,1@\003\000\000\000\323\3004@\363\377\377\037\215\0016@\363\377\377\037\215\0016@\363\377\377\037\205\3134@\371\377\377\277R\2175@\371\377\377\277R\2175@\007\000\000@\275K4@\007\000\000@\275K4@\r\000\000@\323\1775@\005\000\000\300[E5@\366\377\377\277\027\3221@\000\000\000\240w\305.@\000\000\000\240w\305.@\003\000\000@\332\3600@\007\000\000\240u\0202@\n\000\000@\360M5@\371\377\377?\031\2364@\n\000\000\240hM2@\r\000\000\240\203\3474@\371\377\377?\311p5@\371\377\377\377\021\3454@\366\377\377\277\037\3132@\000\000\000`p\2655@\007\000\000\000&\2665@\373\377\377\037\353\1774@\t\000\000\200o\3021@\000\000\000\000He1@\005\000\000\200|\2161@\364\377\377\177\025\2214@\373\377\377\037S\3271@\001\000\000 q:5@\363\377\377\037\265\0374@\363\377\377\037\265\0374@\014\000\000 \232\3525@\014\000\000\200r\3251@\365\377\377?\216\3561@\007\000\000\240-J2@\367\377\377\177\210\0002@\005\000\000\300\023\3061@\371\377\377?\301\3334@\005\000\000\340<.5@\371\377\377_\032\2165@\377\377\377?\367\3751@\002\000\000@:\2244@\367\377\377\177@\3722@\365\377\377\237\016\2016@\371\377\377\377\361\0216@\014\000\000\200J\2762@\374\377\377\337\203\2345@\n\000\000\240\250|4@\364\377\377\337\025P5@\016\000\000\000,\3303@\366\377\377_\037h4@\003\000\000\200\251\3125@\376\377\377\177\266\0265@\004\000\000\300K\3545@\000\000\000\000\220\0035@\013\000\000`\361%5@\363\377\377_\\K4@\365\377\377?6\3471@\000\000\000\000p\0265@\005\000\000 L\0332@\007\000\000@u\2461@\377\377\377\337\336\2424@\363\377\377_\224\3234@\t\000\000@\250{5@\365\377\377\377\226\3055@\r\000\000\340\n\3134@\364\377\377\177\225\0226@\377\377\377\337\316\'6@\375\377\377_\245\3575@\371\377\377?\231\0375@\371\377\377\377\341~3@\364\377\377\177]\3334@\003\000\000\000\003\3245@\005\000\000\340d92@\001\000\000 \271~0@\n\000\000@H\0242@\013\000\000`\231v5@\373\377\377\237\274\r5@\367\377\377\037p&2@\373\377\377\037\303\0242@\014\000\000\200\022\2414@\004\000\000`\023\2525@\002\000\000@j&2@\005\000\000\200T\0054@\005\000\000\200T\0054@\t\000\000\340\377\2644@\365\377\377?FH4@\001\000\000\300@\2312@\373\377\377\337K22@\365\377\377\237\336Y5@\365\377\377\377v\2445@\r\000\000\340\31282@\001\000\000 1\3334@\365\377\377?\376B4@\367\377\377\337\310\0225@\363\377\377_\374\3525@\375\377\377_=Z5@\370\377\377?\001\3305@\007\000\000@m\3064@\003\000\000\000{\2044@\016\000\000\000\014\3654@\371\377\377\377).5@\375\377\377\377$\3421@\373\377\377\237$\0214@\013\000\000\000\361\2576@\014\000\000 z\2474@\004\000\000`\313\2105@\004\000\000`\313\2105@\367\377\377\277\367\3375@\367\377\377\277\367\3375@\370\377\377?\271\3366@\371\377\377?Am5@\002\000\000\200a\0052@\363\377\377\037\245\2341@\t\000\000\200GA5@\r\000\000@\243\2544@\373\377\377\177\303\3125@\n\000\000@\010-5@\n\000\000@\010-5@\366\377\377_\017\3403@\366\377\377_\017\3403@\013\000\000\000\t\2315@\013\000\000\000\t\2315@\013\000\000\000\t\2315@\367\377\377\177\230\3651@\375\377\377_\255S3@\371\377\377\277Z\0175@\371\377\377\277Z\0175@\004\000\000 $\3125@\007\000\000@\315\3635@\007\000\000@\315\3635@\t\000\000 7G4@\002\000\000\340\241T2@\000\000\000\240\307i5@\363\377\377\277\364\2061@\371\377\377\277:\3551@\t\000\000 _\3145@\376\377\377\0376\r2@\367\377\377\037py0@\016\000\000\000|A2@\n\000\000@\010\2201@\367\377\377\177\210]2@\005\000\000 TW2@\371\377\377?\021\3604@\003\000\000\000\243\2615@\003\000\000\000\243\2615@\007\000\000\240U\0320@\367\377\377\337\210M6@\001\000\000\300\250\3544@\002\000\000\200\301\n5@\005\000\000\300\013\2114@\005\000\000\300\013\2114@\371\377\377\277B)4@\007\000\000\000\216\3614@\016\000\000\000|\3140@\377\377\377?\177\0055@\000\000\000\0000`2@\364\377\377\177%\0226@\r\000\000@\263x3@\373\377\377\237\024G2@\005\000\000\300cZ2@\016\000\000\000\214\2311@\376\377\377\177\036X2@\365\377\377?~L2@\013\000\000\300\311\3151@\n\000\000@\000\2202@\002\000\000@\342l4@\003\000\000\240\n]2@\r\000\000\340\342(2@\363\377\377\277\204\2646@\363\377\377\277\334\2324@\373\377\377\337+\3611@\363\377\377\037m\2632@\371\377\377\237a\3702@\001\000\000 \341h5@\371\377\377\277\222i4@\364\377\377\337\005\2264@\010\000\000\300F@6@\365\377\377\237\266y5@\377\377\377?o\3623@\002\000\000\340q\0164@\002\000\000\340q\0164@\002\000\000\340q\0164@\013\000\000\300I\2123@\013\000\000\300I\2123@\013\000\000\300I\2123@\007\000\000\300\356G2@\373\377\377\037\213\0072@\002\000\000@\272x4@\001\000\000 AZ5@\365\377\377?F\2174@\007\000\000\000\266\'4@\345\377\377_0\357/@\365\377\377\377\376\2565@\364\377\377\337\335P2@\367\377\377\037\210R2@\365\377\377\377\326\2102@\363\377\377_\264\2035@\363\377\377_\364j4@\377\377\377?\317\2073@\002\000\000\200\301\3723@\001\000\000\200\231\"1@\013\000\000`i@4@\n\000\000@\030\2052@\t\000\000\200W\2165@\376\377\377\277\r\0002@\375\377\377_\035j2@\001\000\000 \341F2@\372\377\377\277z]1@\377\377\377\337\306\3605@\000\000\000\000\020\2604@\373\377\377\037S\331+@\371\377\377\237\241\0252@\002\000\000\200\301d2@\364\377\377\177U42@\n\000\000\2408\0375@\371\377\377?!14@\366\377\377_\317*5@\366\377\377_\317*5@\375\377\377_\235Q0@\370\377\377\237\201\0136@\364\377\377\337\235~5@\365\377\377?\236C4@\002\000\000\200\261\2354@\r\000\000\340\252m5@\370\377\377?\t\0176@\013\000\000\000\241\3604@\007\000\000\240}<2@\375\377\377_\265\0046@\366\377\377\277w\2272@\373\377\377\037\023\315-@\001\000\000 \t\3370@\374\377\377?\304\2205@\t\000\000\240\300\3705@\r\000\000\2403D4@\r\000\000\2403D4@\367\377\377\037@\3723@\367\377\377\177x\3643@\000\000\000\000\330\2101@\r\000\000\340\232t5@\002\000\000\340\301\3254@\002\000\000\340\301\3254@\373\377\377?\264N4@\003\000\000\340\321\3575@\007\000\000@M\0212@\000\000\000\240W\2551@\t\000\000\200\177,5@\000\000\000` _5@\000\000\000\000\230\3510@\366\377\377_\347%4@\000\000\000\000\010F1@\367\377\377\177\000`2@\007\000\000\300V\0344@\371\377\377\377!\2605@\004\000\000\300K\2515@\365\377\377\377\026\0332@\007\000\000\000\35634@\373\377\377?\004\2364@\373\377\377\337\263\2172@\r\000\000@\213\3164@\013\000\000\000\341\0252@\371\377\377\277\352\2003@\363\377\377\277\334\2362@\002\000\000@\022\2072@\007\000\000`\236O2@\377\377\377\337\236\2225@\376\377\377\037Fo4@\001\000\000 \021\2225@\001\000\000 \021\2225@\366\377\377_\207\3501@\002\000\000\200Q\3461@\363\377\377\277\264O4@\363\377\377\277\354\2052@\375\377\377\177^\0016@\375\377\377\037\036G6@\377\377\377\337\376f5@\n\000\000@\270\2504@\365\377\377\237\25617@\013\000\000\000Qe0@\007\000\000@\205\2025@\007\000\000@\205\2025@\365\377\377?fp3@\351\377\377\177\334\207,@\364\377\377\177\025W4@\377\377\377\337\006\3654@\r\000\000\340\302\0236@\367\377\377\037\210\3155@\r\000\000\240\223o6@\364\377\377\177\275z5@\003\000\000\240\252\3632@\375\377\377_\r\2725@\376\377\377\277}~4@\005\000\000\200T\2022@\000\000\000\0008K1@\007\000\000@U\0142@\007\000\000@5o5@\376\377\377\277\00515@\000\000\000\240\367\2755@\367\377\377\337\260\3554@\000\000\000\240\037\3051@\005\000\000\200\224\2135@\016\000\000\000\034R2@\365\377\377\237\376\2015@\371\377\377_\032\3755@\377\377\377?\377\3710@\007\000\000\240}{4@\366\377\377\277\017\2112@\367\377\377\037\020v2@\367\377\377\177\370=5@\014\000\000\200zt2@\371\377\377_\002\3121@\002\000\000@*H2@\367\377\377\277\007\2055@\000\000\000`\360\3775@\366\377\377\277Oy2@\373\377\377\177k\2126@\013\000\000\300)@4@\010\000\000`f\3165@\366\377\377_7\3113@\366\377\377\277\347B4@\367\377\377\177\320D2@\t\000\000 \037L2@\007\000\000\240}|1@\371\377\377\277\362I2@\366\377\377_\'\3451@\003\000\000\340\001\2075@\007\000\000\000V,5@\365\377\377\237\376\3145@\365\377\377\377\216e0@\371\377\377_JJ2@\002\000\000@\202\2313@\013\000\000\300i\3621@\r\000\000@k\3762@\371\377\377\2371\0014@\367\377\377_\007\3045@\004\000\000 L\2665@\365\377\377\237\316<4@\366\377\377_o\2504@\014\000\000\200\n\2254@\367\377\377__\".@\374\377\377?d\0276@\363\377\377\037U-7@\007\000\000`\266_2@\004\000\000 |`*@\r\000\000@{.3@\365\377\377?\376Q4@\001\000\000\3008\3263@\003\000\000\240\232A0@\002\000\000\200\341\3021@\t\000\000 \32702@\013\000\000`\001f4@\371\377\377?A\3001@\367\377\377\337\240\2504@\366\377\377\277G|4@\367\377\377\0378\2525@\367\377\377\0378\2525@\365\377\377\237n^5@\004\000\000`\323\3465@\t\000\000 \337[5@\014\000\000 \222v5@\005\000\000\340l^4@\014\000\000\200\202\0205@\005\000\000\300\233\3503@\t\000\000@0\2275@\t\000\000@0\2275@\005\000\000 D\3374@\371\377\377\237ye5@\365\377\377?>\0355@\375\377\377_\375p2@\371\377\377?\221\3421@\014\000\000 \022{1@\014\000\000 \242\3353@\005\000\000\340d)2@\001\000\000\300\260,4@\004\000\000`\223\3255@\r\000\000\240\363\2474@\t\000\000\340\227z2@\005\000\000`3\0264@\371\377\377\377\35182@\013\000\000`\341x1@\005\000\000\300kd2@\377\377\377\337\276\2705@\377\377\377\337N=5@\003\000\000@\222G6@\t\000\000\240\320\3705@\375\377\377_\235\3736@\003\000\000\000\333J2@\375\377\377_uQ1@\013\000\000`\311\2415@\003\000\000\200I\2715@\376\377\377\277\305\2324@\014\000\000 zE4@\371\377\377\277:\3435@\017\000\000\000\264\2615@\000\000\000\000\27013@\n\000\000\240\300$4@\r\000\000@\353}5@\375\377\377\377\21474@\007\000\000\240\375\2314@\371\377\377\277\342k6@\365\377\377\377\306r4@\376\377\377\277m\3703@\377\377\377\337~\2125@\371\377\377\377Y\3453@\n\000\000@(\0022@\363\377\377_\004\3561@\365\377\377?\206C6@\371\377\377_\"s5@\377\377\377?\347c5@\373\377\377\237$\3704@\371\377\377_\352\2046@\r\000\000\2403O2@\373\377\377\237,\2252@\t\000\000\200/j5@\370\377\377\237\211D6@\366\377\377_\'u2@\367\377\377\177\36004@\000\000\000\240\247\3505@\371\377\377?\261\3153@\376\377\377\177\266(3@\005\000\000`c\3142@\371\377\377?q\3433@\371\377\377\377Q\3733@\370\377\377\237Y;6@\367\377\377\037\340\3332@\014\000\000 \312\3053@\375\377\377\377\244\3131@\377\377\377?\317\0174@\375\377\377\3774\0026@\364\377\377\177=\3435@\367\377\377\177\27015@\367\377\377\177\27015@\004\000\000`\363g6@\004\000\000`\363g6@\370\377\377\237\021\2006@\000\000\000\0000e2@\014\000\000\200\222\2325@\371\377\377_\262K4@\377\377\377\337>,6@\005\000\000 \234;5@\013\000\000\000\331\'4@\367\377\377\037\210\0315@\365\377\377\2376<5@\002\000\000\340\351\0025@\367\377\377\0378\2334@\r\000\000@\223\3565@\373\377\377\337k\0372@\373\377\377\037k\2111@\r\000\000\340\212\r2@\r\000\000\340:\0342@\367\377\377\037\370/4@\377\377\377?\347\3604@\t\000\000\340\357\3704@\375\377\377_\005\0264@\367\377\377\337\350G5@\r\000\000@\033\0274@\002\000\000\200\251K2@\n\000\000\240\000\3354@\r\000\000\340213@\t\000\000\200o*4@\t\000\000 \267U6@\013\000\000\000\231(6@\007\000\000@\215\2052@\007\000\000`\226\3413@\367\377\377\277W\3255@\005\000\000\340$S6@\367\377\377\037h\2564@\365\377\377?N\2276@\007\000\000\000\036\2525@\373\377\377\2374\\2@\367\377\377\337xZ3@\365\377\377\377\326\3326@\365\377\377\377\326\3326@\375\377\377_\255P4@\007\000\000`&-5@\014\000\000 \34214@\375\377\377\377T\3012@\r\000\000\340\332:2@\001\000\000\300\360;2@\016\000\000\000Lf2@\007\000\000\300\336\0375@\375\377\377\277\005i1@\371\377\377\377\351X5@\365\377\377\237\346T4@\013\000\000`!\0056@\005\000\000\300\353#4@\007\000\000\300\216\r5@\001\000\000 \231\3215@\363\377\377\037Ur5@\373\377\377\037\333l5@\365\377\377\377v\0322@\t\000\000@h\2055@\005\000\000\200|\2434@\t\000\000\3407\3624@\364\377\377\337\035^2@\003\000\000\240\322\r4@\003\000\000@2\0306@\t\000\000 \317Y5@\373\377\377\177C\2222@\373\377\377?\204\"4@\364\377\377\177\005\0204@\007\000\000\000\026\3755@\366\377\377_o\3051@\371\377\377\277\352\2052@\000\000\000\000\330\2425@\376\377\377\037\376G4@\007\000\000`\226\3251@\365\377\377?\236\3053@\365\377\377?\236\3053@\364\377\377\177\255\2634@\007\000\000\000\256\3525@\365\377\377\237\226\3454@\365\377\377\237\306D5@\007\000\000`\276S5@\t\000\000\240p\0146@\003\000\000@*/7@\364\377\377\337\275\2465@\371\377\377_\332\2225@\371\377\377_J\3031@\r\000\000\240\233t5@\007\000\000\300\276<5@\007\000\000\300\276<5@\365\377\377\377\376\3354@\t\000\000\200\'\0145@\370\377\377?\311\2415@\365\377\377\237N\2765@\371\377\377?q-2@\367\377\377\177\020m5@\367\377\377\337\310\0242@\005\000\000\340\304t6@\005\000\000\200\324w4@\005\000\000\200\324w4@\367\377\377\277\227\2735@\371\377\377?\361\2512@\027\000\000\340\213k/@\365\377\377?\366\2013@\r\000\000\240\213W5@\375\377\377_m\0135@\371\377\377\277\362\0235@\r\000\000\340\212\2231@\r\000\000\340\212\2231@\373\377\377\177\213\3661@\364\377\377\177%\2600@\016\000\000\000\374\2122@\366\377\377\277?\0072@\001\000\000 \23166@\013\000\000\000\331x2@\373\377\377\237\224\3253@\002\000\000\340i\3623@\364\377\377\177\225\0005@\366\377\377\277\027\3064@\373\377\377\0373\0132@\000\000\000\000\230\0072@\365\377\377\377\336<2@\001\000\000 Y#2@\364\377\377\177\225O5@\373\377\377\177\263\2445@\017\000\000\000\264{5@\371\377\377_\272Q5@\376\377\377\037\23694@\367\377\377\037\270\"2@\375\377\377\377\034\3221@\373\377\377\177k\3543@\000\000\000\000\000\0201@\000\000\000`\360\3571@\013\000\000\000\311\3524@\013\000\000\000\311\3524@\363\377\377\277\314\2344@\376\377\377\177\356\3374@\363\377\377\277\204\0132@\003\000\000\000\303o2@\366\377\377\277\35763@\000\000\000`Hm2@\013\000\000\000\361\0222@\013\000\000\300\351h4@\364\377\377\337\375\2124@\007\000\000\000\036\3272@\367\377\377\177\340L2@\013\000\000\300\001\3321@\371\377\377\377\251\3215@\367\377\377\337h\2774@\373\377\377\177#\2243@\016\000\000\000,<4@\371\377\377_\262\2135@\000\000\000\000\030B2@\005\000\000\340\314O6@\366\377\377_\367\3354@\373\377\377\177\313E4@\007\000\000\000\216\3545@\357\377\377\237\210\273-@\376\377\377\177\276\2302@\004\000\000 \314\2305@\375\377\377\377,\0376@\367\377\377\177 |4@\013\000\000\000\211\3375@\007\000\000@\355\2721@\376\377\377\177\326d4@\007\000\000\300Vf3@\367\377\377_\237\2625@\n\000\000@\020X2@\r\000\000\240+)9@\n\000\000@xn2@\005\000\000\200\374\2622@\375\377\377_\275>2@\371\377\377?\00105@\376\377\377\177n\2513@\010\000\000\300\036\2025@\005\000\000\340l<2@\373\377\377?\034\t5@\377\377\377\337\326w5@\005\000\000\300\313\2604@\001\000\000\300P\3525@\014\000\000\200\342\3171@\007\000\000\000^\0162@\373\377\377\337c\3771@\367\377\377\277\257\2025@\373\377\377\337\303\3654@\364\377\377\337\325\t4@\376\377\377\177.\2372@\363\377\377\277$\2211@\367\377\377\337\370\0252@\376\377\377\037\246*1@\003\000\000\200\231\3155@\000\000\000\240\377}5@\000\000\000`(_5@\375\377\377_\365\3304@\000\000\000\000h\2374@\n\000\000\240(T5@\001\000\000 \t\2042@\377\377\377\337V92@\377\377\377\337V92@\005\000\000\340$k5@\005\000\000\340<\2735@\014\000\000 2\3101@\003\000\000\000\363\2464@\001\000\000\300\000.4@\n\000\000\240\240&5@\014\000\000\200r_2@\005\000\000`S\3161@\364\377\377\337\325\3011@\363\377\377\037}\3264@\364\377\377\177u+2@\001\000\000 Q\3435@\t\000\000\200g\3621@\371\377\377_\262i2@\013\000\000\000)\3022@\371\377\377_\232\2411@\r\000\000@\323\0175@\r\000\000@\323\0175@\005\000\000 Td5@\005\000\000 Td5@\002\000\000\200\241)5@\002\000\000\200\241)5@\000\000\000\240\317S5@\014\000\000 J\0360@\005\000\000\340\374B4@\363\377\377\277\274\2522@\000\000\000\240\007\2764@\367\377\377\037P\3001@\367\377\377\177\270\3615@\000\000\000\000\000\2202@\r\000\000\340B\3260@\003\000\000\240Z\0204@\365\377\377?\366\2615@\363\377\377_\024<5@\014\000\000\200\362\0312@\364\377\377\337m\3201@\373\377\377?\314\2671@\373\377\377?\324V2@\370\377\377\337@d1@\376\377\377\177\356\2204@\371\377\377_Rk4@\365\377\377\237~\2264@\371\377\377_\022m2@\366\377\377_\027\3714@\367\377\377\337\000\t6@\r\000\000\340\242\2561@\363\377\377\277\314\2722@\014\000\000\200Z\2451@\364\377\377\337u[2@\373\377\377\237L\2354@\013\000\000`\241\3671@\375\377\377\377\224\2745@\375\377\377\377\224\2745@\366\377\377\277\367\\5@\366\377\377\277\367\\5@\375\377\377_\025\3651@\007\000\000@\025\2321@\361\377\377?\003\351,@\033\000\000\340\336\274+@\002\000\000\340\271\3412@\374\377\377\237\354\2145@\374\377\377\237\354\2145@\373\377\377?\204\2614@\373\377\377?\204\2614@\r\000\000\240[+6@\r\000\000\240[+6@\007\000\000`.\2014@\007\000\000`.\2014@\000\000\000\000H\3001@\003\000\000\240\032\3031@\375\377\377\377\004T4@\375\377\377\377\004T4@\376\377\377\277\235\"2@\367\377\377\1778\2434@\004\000\000`\033^6@\373\377\377\337{T3@\001\000\000 \001-1@\376\377\377\177\266\0132@\377\377\377\337\006\3114@\007\000\000`\316N2@\007\000\000\300~\2334@\007\000\000@5\2522@\001\000\000\300PZ2@\363\377\377\277TN2@\363\377\377_\\\0132@\364\377\377\177e\3651@\005\000\000 l\3671@\364\377\377\177\365\0136@\373\377\377\337;\0132@\364\377\377\177\225*2@\376\377\377\177\026j2@\005\000\000 D82@\r\000\000@[v2@\r\000\000\240c\2001@\005\000\000\300\323V2@\364\377\377\177m\3241@\007\000\000`\206\3411@\000\000\000\240\357s5@\367\377\377\177@\3364@\005\000\000 d#5@\364\377\377\177\315=6@\007\000\000@5\2205@\t\000\000\340?C5@\013\000\000\000\321%6@\371\377\377\277j\2105@\371\377\377\277j\2105@\367\377\377\037\230\2324@\013\000\000\000\261\3114@\005\000\000 |\2734@\367\377\377\3378\2725@\364\377\377\337M\2312@\r\000\000\240k@1@\363\377\377\037\275Y1@\363\377\377\037\275Y1@\363\377\377\037\275Y1@\371\377\377\377\371\3024@\007\000\000`\236\2011@\366\377\377_\237\0042@\375\377\377\377\274\3225@\000\000\000\000\300\2422@\373\377\377?\334\0344@\007\000\000@-\0024@\366\377\377_O\0375@\000\000\000\240\307\2235@\373\377\377?\034\3631@\n\000\000\240\230s2@\007\000\000\000\026O4@\365\377\377\237\256\3771@\000\000\000`x\3525@\367\377\377\277\247\2405@\371\377\377_\332e2@\371\377\377\377Y,5@\003\000\000\240\252\0006@\001\000\000 \201\2516@\001\000\000 \201\2516@\365\377\377\377\246\2042@\367\377\377\177\210\1775@\367\377\377\037Xb2@\376\377\377\037\366U5@\000\000\000\000\240\3611@\t\000\000 \247e3@\007\000\000\240\265g2@\365\377\377?\206\2755@\017\000\000\000\354\2675@\t\000\000\340\227\'5@\t\000\000 W\2514@\007\000\000\300n\2231@\007\000\000`\036\0062@\t\000\000\340\217\3461@\t\000\000@`p6@\367\377\377\037\370\3122@\002\000\000\340\231[2@\003\000\000\240\"U2@\364\377\377\177\205\2225@\005\000\000\3404w6@\016\000\000\000\34445@\373\377\377\237\374\3451@\005\000\000 \014_3@\002\000\000\340\361\2363@\002\000\000\340\361\2363@\005\000\000\340\01462@\014\000\000 \342\3723@\001\000\000\300x\0302@\365\377\377\237\276\2160@\005\000\000\200\254>1@\014\000\000\200*\3532@\000\000\000\240G\2611@\n\000\000\2400\0062@\363\377\377\0375x5@\006\000\000@\205\2550@\375\377\377\177v\2005@\005\000\000 \334w2@\376\377\377\037\256\2130@\t\000\000\2007s1@\375\377\377_\005\2611@\013\000\000\000Ac2@\003\000\000\240Z\2024@\375\377\377_\r>3@\001\000\000 Yq2@\367\377\377\337\340\2715@\004\000\000 \314o.@\375\377\377_]@4@\375\377\377_]@4@\013\000\000`a85@\363\377\377_\254\0355@\007\000\000\240M\3474@\t\000\000\200GK5@\t\000\000 o\0252@\002\000\000\340\021\2611@\377\377\377?_\1774@\007\000\000\240\265\2022@\005\000\000\200\02426@\007\000\000\000Fx5@\002\000\000@\n\0354@\t\000\000 wT5@\001\000\000 q\0075@\371\377\377\237)\\4@\003\000\000\200\351\0276@\003\000\000\200\351\0276@\371\377\377_ji2@\002\000\000\200\341\2154@\002\000\000\340\221j4@\000\000\000\000\250\3061@\r\000\000\340\372J2@\007\000\000\300~\3574@\001\000\000\300\340\2745@\373\377\377\337\363\3512@\r\000\000\240C\2714@\t\000\000 \007=4@\t\000\000\200\007\2050@\375\377\377_e\2631@\367\377\377_/\0366@\t\000\000\240\330\2275@\r\000\000@s\3714@\004\000\000 \224\2715@\365\377\377\377\266}4@\005\000\000\200\324\2745@\373\377\377?<\n5@\374\377\377\237\334z1@\007\000\000\240\205v1@\363\377\377\277\324\3225@\005\000\000`3\0302@\r\000\000\240S\336-@\363\377\377_\234G1@\373\377\377\337[\3354@\373\377\377\337[\3354@\007\000\000@\005\2605@\373\377\377\177K\2614@\r\000\000\240+\0302@\367\377\377\337\260\3455@\367\377\377\337H\0214@\014\000\000 z\2453@\377\377\377?\037\2444@\377\377\377?\037\2444@\000\000\000\240\237\2056@\003\000\000\000\273\2215@\r\000\000@\033\3035@\377\377\377\337nI6@\014\000\000 \n75@\373\377\377?\334\0052@\005\000\000\300\253`5@\365\377\377\377\226\0036@\005\000\000 \374;5@\365\377\377?\226\2164@\000\000\000\000p\2522@\003\000\000\000#\0102@\013\000\000`\351\2554@\010\000\000\300fp6@\n\000\000\240\010\2714@\013\000\000\300\331\0075@\363\377\377\037uJ2@\365\377\377\377\356\2065@\373\377\377\177;\3645@\371\377\377?\271\2424@\004\000\000\300+\2115@\005\000\000\340\324\2235@\000\000\000\0000\2464@\000\000\000\0000\2464@\005\000\000\200\224\2175@\013\000\000\300\221\3360@\005\000\000 \\\3240@\367\377\377\177\360l5@\016\000\000\000\014\2513@\005\000\000\200\23485@\371\377\377\377I/5@\375\377\377\377\334\3024@\375\377\377\377\334\3024@\366\377\377_ON5@\000\000\000\000x~4@\000\000\000\240\'\0025@\364\377\377\177\215\3554@\t\000\000 _\0342@\371\377\377\377!\3406@\000\000\000\240\277\3143@\373\377\377\177\013\3031@\373\377\377\237l\3404@\001\000\000\200I\2540@\367\377\377\037\260H2@\r\000\000\240\263r5@\375\377\377\377l\2502@\365\377\377\237V\2425@\005\000\000\200\254\3404@\001\000\000\300\220\2264@\007\000\000`\276F4@\376\377\377\037vr5@\014\000\000\200\332g2@\005\000\000`S\2653@\007\000\000\000\226>6@\373\377\377\237\304O4@\377\377\377\337\366\0272@\003\000\000\240\362s5@\371\377\377\277\342\3255@\000\000\000\000\24055@\000\000\000\000\24055@\t\000\000\340?l5@\013\000\000\300)\2124@\376\377\377\0376b5@\001\000\000 )d5@\364\377\377\177%\2607@\364\377\377\177%\2607@\r\000\000\340b&5@\002\000\000\200\321P5@\000\000\000`\360\0345@\373\377\377\177\033I5@\n\000\000\240(\3132@\t\000\000\200\017\2674@\021\000\000\240\026\035-@\373\377\377\337\223G2@\003\000\000\340\311\3645@\377\377\377?G\3365@\002\000\000\340\tR4@\000\000\000`\010w4@\367\377\377\177\310\3135@\007\000\000\240\315\2214@\363\377\377\2774\3005@\363\377\377\2774\3005@\013\000\000\300\371_1@\371\377\377_:<4@\007\000\000\300>\3304@\014\000\000\200\232\3105@\r\000\000@\203\0302@\375\377\377\3774W4@\376\377\377\277e\2072@\013\000\000\000\221\3445@\001\000\000\300\320r5@\371\377\377?\321P4@\005\000\000`\273\3734@\r\000\000\340\302\3231@\r\000\000\240\253\3741@\366\377\377_\177\0142@\007\000\000`n\2161@\005\000\000 4\3374@\000\000\000`\210\0254@\000\000\000\240\247\3062@\t\000\000\340\347A3@\365\377\377\237\016\2104@\363\377\377_\024V3@\375\377\377_u\3631@\013\000\000\300\261\3671@\372\377\377\277\342\2201@\364\377\377\177\305<2@\371\377\377\237i\2573@\374\377\377\237\264\2045@\002\000\000\340\37145@\370\377\377\337\340f1@\371\377\377\237\371\2704@\373\377\377\337s[5@\363\377\377\277\324M6@\005\000\000`;L5@\001\000\000\300\370\3775@\013\000\000\300\321\3665@\013\000\000\300\321\3665@\373\377\377\337\303\3234@\r\000\000\340\222\0332@\007\000\000\000\346\0162@\003\000\000@BI1@\363\377\377\037\025\1775@\002\000\000@\212\2622@\363\377\377\037e\2025@\032\000\000\300\305\316.@\t\000\000\340\347\2470@\014\000\000\200\022\2700@\364\377\377\177\245H5@\377\377\377\337\21615@\377\377\377\337\21615@\005\000\000\340\324!5@\n\000\000@\230\2112@\371\377\377?yd4@\366\377\377\277\257\2334@\373\377\377\177\243\2264@\005\000\000\340\304\0022@\r\000\000\240\273\3061@\363\377\377\037-\003/@\367\377\377\037xG2@\t\000\000\340\327\3433@\364\377\377\177\345i1@\005\000\000\200\314\3004@\005\000\000\200\314\3004@\005\000\000\200T\3343@\014\000\000\200*\0002@\n\000\000\240\270=1@\363\377\377\037\335\3751@\014\000\000 \"`1@\014\000\000 :\3171@\365\377\377\377\376\3305@\363\377\377_\304\2505@\365\377\377\377\006\2022@\366\377\377\277\347\r2@\004\000\000`+\332/@\001\000\000`\21010@\363\377\377\277\244m1@\002\000\000@\322\2502@\005\000\000`\373\3601@\001\000\000 Y\3633@\000\000\000\240\33712@\373\377\377\177\343\0276@\367\377\377_\03756@\004\000\000\300c}5@\005\000\000\200\034\3640@\002\000\000@\252f2@\363\377\377\277t\2642@\005\000\000\300\273l2@\365\377\377\377\00602@\365\377\377?\206\0102@\002\000\000\200A\3231@\001\000\000 1o4@\007\000\000@\025\2116@\n\000\000\240\230\3742@\003\000\000\0003\3342@\003\000\000\0003\3342@\365\377\377?\346\3774@\371\377\377\377\301\2736@\365\377\377?~\0272@\007\000\000\240\305\t1@\377\377\377?\317O4@\375\377\377\377D73@\t\000\000 \277\2411@\371\377\377\377\201\3172@\373\377\377\237\274\2542@\017\000\000\000\014\3635@\364\377\377\337\355\3215@\373\377\377\177\033\2263@\371\377\377\377\231(2@\375\377\377_U\3433@\t\000\000 \'\0175@\016\000\000\000\224\3734@\366\377\377\277\277\2762@\t\000\000@\330\2505@\014\000\000 \032\2363@\363\377\377_D@2@\005\000\000\300Sc5@\366\377\377\277/y3@\005\000\000\300S\0175@\373\377\377\237\274\3701@\367\377\377\337\240\0242@\014\000\000 \202`1@\376\377\377\277\255\3514@\005\000\000\340LP5@\003\000\000\240\252\2203@\r\000\000\240\313\3225@\013\000\000\000q\2334@\000\000\000\000\010\0372@\005\000\000 \024\2721@\375\377\377\277M]0@\353\377\377\377m\245.@\025\000\000\300\202\233.@\371\377\377\237yN4@\371\377\377\237yN4@\r\000\000\240\31346@\364\377\377\337\255\3364@\365\377\377?\206\3345@\005\000\000\300\003?2@\007\000\000\000nO4@\014\000\000 *\"5@\r\000\000\340\ne2@\t\000\000\340\347K6@\365\377\377\377&\0343@\013\000\000\300A\0355@\000\000\000`\030\2105@\000\000\000`\370\3213@\371\377\377\377\241\0212@\014\000\000 \232\n2@\004\000\000 \254\3135@\016\000\000\000\364+5@\375\377\377\377\254\3424@\371\377\377\277\30262@\367\377\377_?\355.@\005\000\000\200,\3624@\007\000\000\300N\2004@\366\377\377_w\2533@\r\000\000\340\342\3155@\373\377\377\337\373\0144@\013\000\000\300\341t5@\001\000\000 \27142@\371\377\377_\362\0022@\375\377\377\377T=5@\363\377\377\037E\2741@\377\377\377\337>\0246@\013\000\000\000iA2@\373\377\377\177\013x4@\016\000\000\000\214\0365@\375\377\377\177\216\2225@\r\000\000\240\253\0104@\004\000\000 4\2265@\376\377\377\277\275\2032@\373\377\377\237\264\2753@\377\377\377?\347\2122@\372\377\377\277\302x1@\371\377\377\237\231\2772@\364\377\377\337\365\2505@\013\000\000`\301\2472@\363\377\377\277\034\2071@\373\377\377\177sB4@\363\377\377\037\225\3111@\365\377\377\237&\0344@\366\377\377\277\277M1@\013\000\000\300\261$1@\371\377\377\377)M2@\003\000\000\000Cz5@\003\000\000\000Cz5@\000\000\000`\020\0105@\000\000\000`\020\0105@\363\377\377\037%64@\376\377\377\177~\2512@\364\377\377\337\255$2@\367\377\377\037`k5@\t\000\000\200\017\0311@\005\000\000`Kw5@\003\000\000\000\013\3723@\371\377\377\237\351f2@\363\377\377\277\03402@\355\377\377?\300y/@\371\377\377_B\2106@\363\377\377\0375p1@\000\000\000\000\000\2011@\014\000\000 \232\3303@\000\000\000\000\250|8@\000\000\000\000\250|8@\003\000\000\240:\0026@\377\377\377?\377^6@\n\000\000\240\220(2@\371\377\377_JW2@\t\000\000 \017\0275@\013\000\000\000\241\3473@\371\377\377\237y\2124@\000\000\000\240/^5@\371\377\377\377\371\3715@\367\377\377\337\310]4@\005\000\000\200\244s5@\363\377\377\037\355\2015@\363\377\377\277\364\3754@\007\000\000\300\306q5@\371\377\377?ir1@\371\377\377?ir1@\r\000\000@\023v2@\r\000\000@\023v2@\001\000\000 \261\3472@\000\000\000``\2076@\375\377\377\377\\G2@\007\000\000\300\206\3024@\366\377\377_\037%1@\366\377\377_\037%1@\007\000\000\000\346w2@\010\000\000\300\256\0207@\375\377\377\177\276\3645@\375\377\377\177\276\3645@\013\000\000\000\371\2375@\t\000\000\2007\3553@\t\000\000\2007\3553@\n\000\000@\030\3344@\377\377\377\337\206J2@\375\377\377_\365\2545@\016\000\000\000\264\0042@\002\000\000\200A\2044@\363\377\377_D\0042@\364\377\377\177=\2555@\007\000\000@\005\3524@\365\377\377\377>\3435@\001\000\000 Q\0222@\005\000\000\340\214\3121@\014\000\000 